#include "magic_wand_model_data.h"


// We need to keep the data array aligned on some architectures.

#ifdef __has_attribute

#define HAVE_ATTRIBUTE(x) __has_attribute(x)

#else

#define HAVE_ATTRIBUTE(x) 0

#endif

#if HAVE_ATTRIBUTE(aligned) || (defined(__GNUC__) && !defined(__clang__))

#define DATA_ALIGN_ATTRIBUTE __attribute__((aligned(4)))

#else

#define DATA_ALIGN_ATTRIBUTE

#endif


const unsigned char g_magic_wand_model_data[] DATA_ALIGN_ATTRIBUTE = {

  // Paste the data of the char array in `src/model.cc` here



  0x08, 0x00, 0x00, 0x00, 0x54, 0x46, 0x4c, 0x33, 0x62, 0xff, 0xff, 0xff,
  0x03, 0x00, 0x00, 0x00, 0x10, 0x00, 0x00, 0x00, 0x24, 0x00, 0x00, 0x00,
  0x78, 0x00, 0x00, 0x00, 0x24, 0x00, 0x00, 0x00, 0x05, 0x00, 0x00, 0x00,
  0x78, 0x05, 0x00, 0x00, 0xb0, 0x04, 0x00, 0x00, 0xe0, 0x02, 0x00, 0x00,
  0x60, 0x02, 0x00, 0x00, 0x54, 0x01, 0x00, 0x00, 0x01, 0x00, 0x00, 0x00,
  0x78, 0x00, 0x00, 0x00, 0x13, 0x00, 0x00, 0x00, 0xd4, 0x2f, 0x00, 0x00,
  0xd0, 0x2f, 0x00, 0x00, 0xdc, 0x2e, 0x00, 0x00, 0x68, 0x2e, 0x00, 0x00,
  0xfc, 0x2d, 0x00, 0x00, 0xac, 0x11, 0x00, 0x00, 0x98, 0x10, 0x00, 0x00,
  0xbc, 0x0e, 0x00, 0x00, 0x60, 0x06, 0x00, 0x00, 0xfc, 0x05, 0x00, 0x00,
  0x78, 0x05, 0x00, 0x00, 0xa8, 0x2f, 0x00, 0x00, 0xa4, 0x2f, 0x00, 0x00,
  0xa0, 0x2f, 0x00, 0x00, 0x9c, 0x2f, 0x00, 0x00, 0x98, 0x2f, 0x00, 0x00,
  0x94, 0x2f, 0x00, 0x00, 0x90, 0x2f, 0x00, 0x00, 0x8c, 0x2f, 0x00, 0x00,
  0x0f, 0x00, 0x00, 0x00, 0x4d, 0x4c, 0x49, 0x52, 0x20, 0x43, 0x6f, 0x6e,
  0x76, 0x65, 0x72, 0x74, 0x65, 0x64, 0x2e, 0x00, 0x00, 0x00, 0x0e, 0x00,
  0x18, 0x00, 0x04, 0x00, 0x08, 0x00, 0x0c, 0x00, 0x10, 0x00, 0x14, 0x00,
  0x0e, 0x00, 0x00, 0x00, 0x14, 0x00, 0x00, 0x00, 0x5c, 0x00, 0x00, 0x00,
  0x60, 0x00, 0x00, 0x00, 0x64, 0x00, 0x00, 0x00, 0x84, 0x00, 0x00, 0x00,
  0x12, 0x00, 0x00, 0x00, 0x04, 0x2f, 0x00, 0x00, 0xa0, 0x2e, 0x00, 0x00,
  0xf8, 0x2d, 0x00, 0x00, 0x98, 0x2d, 0x00, 0x00, 0x30, 0x2d, 0x00, 0x00,
  0xdc, 0x10, 0x00, 0x00, 0xc0, 0x0f, 0x00, 0x00, 0xe4, 0x0d, 0x00, 0x00,
  0xa0, 0x05, 0x00, 0x00, 0x3c, 0x05, 0x00, 0x00, 0xb0, 0x04, 0x00, 0x00,
  0xe8, 0x03, 0x00, 0x00, 0x38, 0x03, 0x00, 0x00, 0xa4, 0x02, 0x00, 0x00,
  0x10, 0x02, 0x00, 0x00, 0x90, 0x01, 0x00, 0x00, 0xfc, 0x00, 0x00, 0x00,
  0x80, 0x00, 0x00, 0x00, 0x01, 0x00, 0x00, 0x00, 0x00, 0x00, 0x00, 0x00,
  0x01, 0x00, 0x00, 0x00, 0x11, 0x00, 0x00, 0x00, 0x08, 0x00, 0x00, 0x00,
  0x1c, 0x04, 0x00, 0x00, 0x58, 0x03, 0x00, 0x00, 0xc8, 0x02, 0x00, 0x00,
  0x24, 0x02, 0x00, 0x00, 0xac, 0x01, 0x00, 0x00, 0x10, 0x01, 0x00, 0x00,
  0x94, 0x00, 0x00, 0x00, 0x10, 0x00, 0x00, 0x00, 0x04, 0x00, 0x00, 0x00,
  0x6d, 0x61, 0x69, 0x6e, 0x00, 0x00, 0x00, 0x00, 0x8e, 0xff, 0xff, 0xff,
  0x00, 0x00, 0x00, 0x09, 0x04, 0x00, 0x00, 0x00, 0x1c, 0x00, 0x00, 0x00,
  0x10, 0x00, 0x00, 0x00, 0x04, 0x00, 0x00, 0x00, 0x4e, 0xd2, 0xff, 0xff,
  0x00, 0x00, 0x80, 0x3f, 0x01, 0x00, 0x00, 0x00, 0x11, 0x00, 0x00, 0x00,
  0x01, 0x00, 0x00, 0x00, 0x10, 0x00, 0x00, 0x00, 0xf6, 0xfb, 0xff, 0xff,
  0x00, 0x00, 0x00, 0x19, 0x01, 0x00, 0x00, 0x00, 0xce, 0xd1, 0xff, 0xff,
  0x10, 0x00, 0x00, 0x00, 0x12, 0x00, 0x00, 0x00, 0x14, 0x00, 0x00, 0x00,
  0x20, 0x00, 0x00, 0x00, 0x02, 0x00, 0x00, 0x00, 0x01, 0x00, 0x00, 0x00,
  0x03, 0x00, 0x00, 0x00, 0x08, 0x00, 0x00, 0x00, 0x49, 0x64, 0x65, 0x6e,
  0x74, 0x69, 0x74, 0x79, 0x00, 0x00, 0x00, 0x00, 0x08, 0xd2, 0xff, 0xff,
  0x00, 0x00, 0x0e, 0x00, 0x18, 0x00, 0x08, 0x00, 0x0c, 0x00, 0x10, 0x00,
  0x07, 0x00, 0x14, 0x00, 0x0e, 0x00, 0x00, 0x00, 0x00, 0x00, 0x00, 0x08,
  0x03, 0x00, 0x00, 0x00, 0x18, 0x00, 0x00, 0x00, 0x0c, 0x00, 0x00, 0x00,
  0x04, 0x00, 0x00, 0x00, 0xdc, 0xd1, 0xff, 0xff, 0x01, 0x00, 0x00, 0x00,
  0x10, 0x00, 0x00, 0x00, 0x03, 0x00, 0x00, 0x00, 0x0f, 0x00, 0x00, 0x00,
  0x05, 0x00, 0x00, 0x00, 0x02, 0x00, 0x00, 0x00, 0x46, 0xd2, 0xff, 0xff,
  0x10, 0x00, 0x00, 0x00, 0x11, 0x00, 0x00, 0x00, 0x14, 0x00, 0x00, 0x00,
  0x30, 0x00, 0x00, 0x00, 0x02, 0x00, 0x00, 0x00, 0x01, 0x00, 0x00, 0x00,
  0x03, 0x00, 0x00, 0x00, 0x1a, 0x00, 0x00, 0x00, 0x73, 0x65, 0x71, 0x75,
  0x65, 0x6e, 0x74, 0x69, 0x61, 0x6c, 0x2f, 0x64, 0x65, 0x6e, 0x73, 0x65,
  0x5f, 0x31, 0x2f, 0x42, 0x69, 0x61, 0x73, 0x41, 0x64, 0x64, 0x00, 0x00,
  0x38, 0xd2, 0xff, 0xff, 0xd6, 0xfd, 0xff, 0xff, 0x00, 0x00, 0x00, 0x08,
  0x03, 0x00, 0x00, 0x00, 0x24, 0x00, 0x00, 0x00, 0x18, 0x00, 0x00, 0x00,
  0x0c, 0x00, 0x00, 0x00, 0x00, 0x00, 0x06, 0x00, 0x08, 0x00, 0x07, 0x00,
  0x06, 0x00, 0x00, 0x00, 0x00, 0x00, 0x00, 0x01, 0x01, 0x00, 0x00, 0x00,
  0x0f, 0x00, 0x00, 0x00, 0x03, 0x00, 0x00, 0x00, 0x0e, 0x00, 0x00, 0x00,
  0x04, 0x00, 0x00, 0x00, 0x01, 0x00, 0x00, 0x00, 0xfe, 0xfc, 0xff, 0xff,
  0x00, 0x00, 0x00, 0x09, 0x01, 0x00, 0x00, 0x00, 0xd6, 0xd2, 0xff, 0xff,
  0x10, 0x00, 0x00, 0x00, 0x10, 0x00, 0x00, 0x00, 0x14, 0x00, 0x00, 0x00,
  0x2c, 0x00, 0x00, 0x00, 0x02, 0x00, 0x00, 0x00, 0x01, 0x00, 0x00, 0x00,
  0x10, 0x00, 0x00, 0x00, 0x15, 0x00, 0x00, 0x00, 0x73, 0x65, 0x71, 0x75,
  0x65, 0x6e, 0x74, 0x69, 0x61, 0x6c, 0x2f, 0x64, 0x65, 0x6e, 0x73, 0x65,
  0x2f, 0x52, 0x65, 0x6c, 0x75, 0x00, 0x00, 0x00, 0x1c, 0xd3, 0xff, 0xff,
  0x00, 0x00, 0x0a, 0x00, 0x10, 0x00, 0x04, 0x00, 0x08, 0x00, 0x0c, 0x00,
  0x0a, 0x00, 0x00, 0x00, 0x02, 0x00, 0x00, 0x00, 0x10, 0x00, 0x00, 0x00,
  0x04, 0x00, 0x00, 0x00, 0x01, 0x00, 0x00, 0x00, 0x0e, 0x00, 0x00, 0x00,
  0x02, 0x00, 0x00, 0x00, 0x0d, 0x00, 0x00, 0x00, 0x03, 0x00, 0x00, 0x00,
  0x7a, 0xfd, 0xff, 0xff, 0x00, 0x00, 0x00, 0x16, 0x01, 0x00, 0x00, 0x00,
  0x52, 0xd3, 0xff, 0xff, 0x10, 0x00, 0x00, 0x00, 0x0f, 0x00, 0x00, 0x00,
  0x14, 0x00, 0x00, 0x00, 0x30, 0x00, 0x00, 0x00, 0x02, 0x00, 0x00, 0x00,
  0x01, 0x00, 0x00, 0x00, 0x70, 0x00, 0x00, 0x00, 0x1a, 0x00, 0x00, 0x00,
  0x73, 0x65, 0x71, 0x75, 0x65, 0x6e, 0x74, 0x69, 0x61, 0x6c, 0x2f, 0x66,
  0x6c, 0x61, 0x74, 0x74, 0x65, 0x6e, 0x2f, 0x52, 0x65, 0x73, 0x68, 0x61,
  0x70, 0x65, 0x00, 0x00, 0x44, 0xd3, 0xff, 0xff, 0xe2, 0xfe, 0xff, 0xff,
  0x00, 0x00, 0x00, 0x05, 0x01, 0x00, 0x00, 0x00, 0x38, 0x00, 0x00, 0x00,
  0x2c, 0x00, 0x00, 0x00, 0x14, 0x00, 0x00, 0x00, 0x00, 0x00, 0x0e, 0x00,
  0x14, 0x00, 0x00, 0x00, 0x10, 0x00, 0x0c, 0x00, 0x08, 0x00, 0x04, 0x00,
  0x0e, 0x00, 0x00, 0x00, 0x03, 0x00, 0x00, 0x00, 0x01, 0x00, 0x00, 0x00,
  0x03, 0x00, 0x00, 0x00, 0x01, 0x00, 0x00, 0x00, 0x01, 0x00, 0x00, 0x00,
  0x0d, 0x00, 0x00, 0x00, 0x01, 0x00, 0x00, 0x00, 0x0c, 0x00, 0x00, 0x00,
  0xe2, 0xd3, 0xff, 0xff, 0x10, 0x00, 0x00, 0x00, 0x0e, 0x00, 0x00, 0x00,
  0x1c, 0x00, 0x00, 0x00, 0x40, 0x00, 0x00, 0x00, 0x04, 0x00, 0x00, 0x00,
  0x01, 0x00, 0x00, 0x00, 0x07, 0x00, 0x00, 0x00, 0x01, 0x00, 0x00, 0x00,
  0x10, 0x00, 0x00, 0x00, 0x22, 0x00, 0x00, 0x00, 0x73, 0x65, 0x71, 0x75,
  0x65, 0x6e, 0x74, 0x69, 0x61, 0x6c, 0x2f, 0x6d, 0x61, 0x78, 0x5f, 0x70,
  0x6f, 0x6f, 0x6c, 0x69, 0x6e, 0x67, 0x32, 0x64, 0x5f, 0x31, 0x2f, 0x4d,
  0x61, 0x78, 0x50, 0x6f, 0x6f, 0x6c, 0x00, 0x00, 0xe4, 0xd3, 0xff, 0xff,
  0xc2, 0xfe, 0xff, 0xff, 0x00, 0x00, 0x00, 0x01, 0x24, 0x00, 0x00, 0x00,
  0x18, 0x00, 0x00, 0x00, 0x04, 0x00, 0x00, 0x00, 0xb4, 0xfe, 0xff, 0xff,
  0x01, 0x00, 0x00, 0x00, 0x01, 0x00, 0x00, 0x00, 0x00, 0x00, 0x00, 0x01,
  0x01, 0x00, 0x00, 0x00, 0x0c, 0x00, 0x00, 0x00, 0x03, 0x00, 0x00, 0x00,
  0x0b, 0x00, 0x00, 0x00, 0x07, 0x00, 0x00, 0x00, 0x09, 0x00, 0x00, 0x00,
  0x72, 0xd4, 0xff, 0xff, 0x10, 0x00, 0x00, 0x00, 0x0d, 0x00, 0x00, 0x00,
  0x1c, 0x00, 0x00, 0x00, 0x2c, 0x00, 0x00, 0x00, 0x04, 0x00, 0x00, 0x00,
  0x01, 0x00, 0x00, 0x00, 0x15, 0x00, 0x00, 0x00, 0x01, 0x00, 0x00, 0x00,
  0x10, 0x00, 0x00, 0x00, 0x0c, 0x00, 0x00, 0x00, 0x74, 0x66, 0x6c, 0x2e,
  0x63, 0x6f, 0x6e, 0x76, 0x5f, 0x32, 0x64, 0x31, 0x00, 0x00, 0x00, 0x00,
  0xb8, 0xd4, 0xff, 0xff, 0x00, 0x00, 0x0e, 0x00, 0x1a, 0x00, 0x08, 0x00,
  0x0c, 0x00, 0x10, 0x00, 0x07, 0x00, 0x14, 0x00, 0x0e, 0x00, 0x00, 0x00,
  0x00, 0x00, 0x00, 0x05, 0x01, 0x00, 0x00, 0x00, 0x3c, 0x00, 0x00, 0x00,
  0x30, 0x00, 0x00, 0x00, 0x14, 0x00, 0x00, 0x00, 0x00, 0x00, 0x0e, 0x00,
  0x18, 0x00, 0x17, 0x00, 0x10, 0x00, 0x0c, 0x00, 0x08, 0x00, 0x04, 0x00,
  0x0e, 0x00, 0x00, 0x00, 0x03, 0x00, 0x00, 0x00, 0x03, 0x00, 0x00, 0x00,
  0x03, 0x00, 0x00, 0x00, 0x03, 0x00, 0x00, 0x00, 0x00, 0x00, 0x00, 0x01,
  0x01, 0x00, 0x00, 0x00, 0x0b, 0x00, 0x00, 0x00, 0x01, 0x00, 0x00, 0x00,
  0x0a, 0x00, 0x00, 0x00, 0x46, 0xff, 0xff, 0xff, 0x00, 0x00, 0x00, 0x11,
  0x01, 0x00, 0x00, 0x00, 0x1e, 0xd5, 0xff, 0xff, 0x10, 0x00, 0x00, 0x00,
  0x0c, 0x00, 0x00, 0x00, 0x1c, 0x00, 0x00, 0x00, 0x40, 0x00, 0x00, 0x00,
  0x04, 0x00, 0x00, 0x00, 0x01, 0x00, 0x00, 0x00, 0x15, 0x00, 0x00, 0x00,
  0x01, 0x00, 0x00, 0x00, 0x08, 0x00, 0x00, 0x00, 0x20, 0x00, 0x00, 0x00,
  0x73, 0x65, 0x71, 0x75, 0x65, 0x6e, 0x74, 0x69, 0x61, 0x6c, 0x2f, 0x6d,
  0x61, 0x78, 0x5f, 0x70, 0x6f, 0x6f, 0x6c, 0x69, 0x6e, 0x67, 0x32, 0x64,
  0x2f, 0x4d, 0x61, 0x78, 0x50, 0x6f, 0x6f, 0x6c, 0x00, 0x00, 0x00, 0x00,
  0x78, 0xd5, 0xff, 0xff, 0x00, 0x00, 0x0e, 0x00, 0x14, 0x00, 0x00, 0x00,
  0x08, 0x00, 0x0c, 0x00, 0x07, 0x00, 0x10, 0x00, 0x0e, 0x00, 0x00, 0x00,
  0x00, 0x00, 0x00, 0x01, 0x30, 0x00, 0x00, 0x00, 0x24, 0x00, 0x00, 0x00,
  0x10, 0x00, 0x00, 0x00, 0x0c, 0x00, 0x10, 0x00, 0x00, 0x00, 0x04, 0x00,
  0x08, 0x00, 0x0f, 0x00, 0x0c, 0x00, 0x00, 0x00, 0x01, 0x00, 0x00, 0x00,
  0x01, 0x00, 0x00, 0x00, 0x00, 0x00, 0x00, 0x01, 0x01, 0x00, 0x00, 0x00,
  0x0a, 0x00, 0x00, 0x00, 0x03, 0x00, 0x00, 0x00, 0x00, 0x00, 0x00, 0x00,
  0x06, 0x00, 0x00, 0x00, 0x08, 0x00, 0x00, 0x00, 0x00, 0x00, 0x0a, 0x00,
  0x0c, 0x00, 0x07, 0x00, 0x00, 0x00, 0x08, 0x00, 0x0a, 0x00, 0x00, 0x00,
  0x00, 0x00, 0x00, 0x03, 0x01, 0x00, 0x00, 0x00, 0xe2, 0xd5, 0xff, 0xff,
  0x10, 0x00, 0x00, 0x00, 0x0b, 0x00, 0x00, 0x00, 0x1c, 0x00, 0x00, 0x00,
  0x28, 0x00, 0x00, 0x00, 0x04, 0x00, 0x00, 0x00, 0x01, 0x00, 0x00, 0x00,
  0x40, 0x00, 0x00, 0x00, 0x03, 0x00, 0x00, 0x00, 0x08, 0x00, 0x00, 0x00,
  0x0b, 0x00, 0x00, 0x00, 0x74, 0x66, 0x6c, 0x2e, 0x63, 0x6f, 0x6e, 0x76,
  0x5f, 0x32, 0x64, 0x00, 0xcc, 0xd5, 0xff, 0xff, 0xc2, 0xd6, 0xff, 0xff,
  0x04, 0x00, 0x00, 0x00, 0x40, 0x00, 0x00, 0x00, 0xe0, 0x8f, 0x4e, 0xbe,
  0xae, 0x98, 0x82, 0xbb, 0xa8, 0x31, 0xf0, 0xba, 0xaa, 0x59, 0xbd, 0xbf,
  0x0e, 0xfe, 0x20, 0x3f, 0x50, 0xcb, 0x92, 0x3f, 0xad, 0xfd, 0x0d, 0xc0,
  0xf4, 0x7d, 0xec, 0x3e, 0x95, 0x03, 0x7d, 0xbb, 0x6d, 0xf3, 0x5a, 0xbf,
  0x36, 0xca, 0x75, 0xbf, 0xc6, 0x8e, 0x15, 0x40, 0x8f, 0xf7, 0x86, 0xba,
  0x42, 0x00, 0x46, 0xbf, 0xe0, 0xe3, 0xcb, 0xbf, 0x2a, 0x81, 0x14, 0x3a,
  0x6a, 0xd6, 0xff, 0xff, 0x10, 0x00, 0x00, 0x00, 0x0a, 0x00, 0x00, 0x00,
  0x10, 0x00, 0x00, 0x00, 0x20, 0x00, 0x00, 0x00, 0x01, 0x00, 0x00, 0x00,
  0x10, 0x00, 0x00, 0x00, 0x0d, 0x00, 0x00, 0x00, 0x73, 0x74, 0x64, 0x2e,
  0x63, 0x6f, 0x6e, 0x73, 0x74, 0x61, 0x6e, 0x74, 0x31, 0x00, 0x00, 0x00,
  0x4c, 0xd6, 0xff, 0xff, 0x42, 0xd7, 0xff, 0xff, 0x04, 0x00, 0x00, 0x00,
  0x20, 0x00, 0x00, 0x00, 0x65, 0x72, 0x0c, 0xbf, 0xd7, 0x22, 0x86, 0xbe,
  0x2e, 0x87, 0x0e, 0xc0, 0x85, 0xfc, 0x83, 0xbb, 0x4d, 0x6c, 0xc1, 0xbf,
  0x7a, 0x85, 0x0b, 0xc0, 0x0f, 0x21, 0x07, 0xbf, 0x32, 0x16, 0x0d, 0xc0,
  0xca, 0xd6, 0xff, 0xff, 0x10, 0x00, 0x00, 0x00, 0x09, 0x00, 0x00, 0x00,
  0x10, 0x00, 0x00, 0x00, 0x20, 0x00, 0x00, 0x00, 0x01, 0x00, 0x00, 0x00,
  0x08, 0x00, 0x00, 0x00, 0x0c, 0x00, 0x00, 0x00, 0x73, 0x74, 0x64, 0x2e,
  0x63, 0x6f, 0x6e, 0x73, 0x74, 0x61, 0x6e, 0x74, 0x00, 0x00, 0x00, 0x00,
  0xac, 0xd6, 0xff, 0xff, 0xa2, 0xd7, 0xff, 0xff, 0x04, 0x00, 0x00, 0x00,
  0x00, 0x08, 0x00, 0x00, 0xa5, 0x1c, 0xa1, 0xbe, 0x22, 0x0c, 0x59, 0x3e,
  0x43, 0xe8, 0x4c, 0xbe, 0x78, 0x5e, 0x40, 0x3e, 0x5a, 0x4f, 0x42, 0x3e,
  0x1a, 0x72, 0x2e, 0xbe, 0x2b, 0xa4, 0x37, 0x3e, 0xae, 0x5e, 0xf9, 0x3d,
  0x9a, 0xa7, 0xb5, 0xbe, 0xcc, 0x19, 0x4d, 0x3d, 0x6f, 0xcd, 0x7f, 0xbe,
  0xfc, 0x30, 0x38, 0xbc, 0x92, 0x00, 0xed, 0x3e, 0x27, 0x40, 0x0b, 0xbe,
  0x84, 0x79, 0x77, 0x3d, 0xbb, 0xb9, 0x95, 0xbe, 0x3b, 0x1f, 0x36, 0xbe,
  0x31, 0xa8, 0x9c, 0xbe, 0xc5, 0x7a, 0x0b, 0xbe, 0x28, 0x62, 0xda, 0xbd,
  0xf1, 0xc0, 0xb1, 0xbd, 0xa8, 0x3a, 0x07, 0xbd, 0x3c, 0x28, 0xcc, 0x3e,
  0xcb, 0xd4, 0xb2, 0xbe, 0xcb, 0x44, 0xbb, 0x3c, 0x37, 0x74, 0xbc, 0xbe,
  0x55, 0x91, 0xc8, 0xbd, 0x3c, 0xca, 0x2a, 0xbe, 0x4a, 0xea, 0xe1, 0xbe,
  0x2d, 0x3f, 0x13, 0x3e, 0x78, 0x42, 0x0e, 0xbf, 0x8e, 0x95, 0xcc, 0xbd,
  0xce, 0x31, 0x81, 0xbe, 0x09, 0x3a, 0xb4, 0xbe, 0xdd, 0x98, 0x49, 0x3e,
  0xea, 0x37, 0x03, 0xbd, 0x74, 0x3e, 0xbf, 0x3d, 0x78, 0xf7, 0x57, 0xbe,
  0xa1, 0x47, 0xf6, 0xbe, 0x83, 0x66, 0x59, 0x3e, 0xc6, 0x1c, 0xd2, 0xbe,
  0xe1, 0xa1, 0xfc, 0x3e, 0xba, 0x7f, 0xcd, 0x3c, 0x78, 0xf1, 0x19, 0xbd,
  0x9d, 0x03, 0x1b, 0x3e, 0x54, 0x58, 0xbb, 0xbe, 0x64, 0x75, 0x7a, 0x3d,
  0x9f, 0xc5, 0xda, 0x3d, 0xd6, 0x14, 0x5a, 0xbe, 0x0e, 0xc7, 0x51, 0xbe,
  0xce, 0x79, 0x3f, 0xbd, 0x16, 0x0c, 0x9b, 0xbc, 0x15, 0xad, 0x76, 0x3e,
  0xd3, 0x01, 0x0c, 0xbe, 0xb8, 0x8a, 0x98, 0xbd, 0x41, 0xf3, 0xf2, 0xbd,
  0x4f, 0x54, 0xb4, 0x3d, 0xbe, 0x2c, 0x85, 0xbd, 0xdd, 0x22, 0xac, 0x3c,
  0xfb, 0xad, 0xf4, 0x3b, 0xcc, 0xc1, 0x7b, 0xbb, 0xfa, 0x54, 0x8c, 0xbb,
  0x92, 0x9c, 0xdf, 0xbc, 0x8a, 0x0c, 0x8c, 0x39, 0x4c, 0x8b, 0x50, 0xbe,
  0x92, 0x60, 0x40, 0xbe, 0x31, 0x95, 0x5b, 0x3e, 0x5b, 0xb6, 0xb8, 0xbd,
  0xc1, 0x8b, 0xd7, 0xbd, 0xe1, 0x94, 0xf3, 0xbc, 0xbd, 0x5c, 0x73, 0xbe,
  0xba, 0x23, 0x6e, 0x3d, 0xdb, 0x95, 0xf2, 0xbd, 0xff, 0x41, 0x99, 0xbe,
  0xaf, 0x41, 0x49, 0xbd, 0x4e, 0xf3, 0xed, 0xbd, 0xc0, 0x4d, 0x5c, 0xbd,
  0x82, 0xde, 0xa0, 0xbd, 0xb3, 0x3f, 0xab, 0xbd, 0x31, 0x6b, 0x75, 0xbe,
  0xa3, 0x5b, 0xcf, 0xbd, 0x94, 0x3e, 0x06, 0xbe, 0xc6, 0xc3, 0x80, 0x3e,
  0xe9, 0x59, 0x23, 0xbe, 0xd6, 0x14, 0x9d, 0x3d, 0x51, 0x83, 0x0c, 0xbe,
  0xb4, 0xae, 0x1e, 0xbe, 0xa2, 0x0f, 0x80, 0x3e, 0x34, 0xab, 0x0c, 0xbe,
  0xb9, 0xef, 0x3c, 0xbb, 0x65, 0x31, 0x80, 0x3e, 0xa3, 0x8a, 0xc4, 0xbd,
  0x5d, 0xf3, 0x25, 0xbe, 0x6a, 0x93, 0xb8, 0xbc, 0x19, 0xf8, 0x9d, 0xbe,
  0x3e, 0xfa, 0x24, 0xbe, 0x80, 0xd3, 0x81, 0x3e, 0x1f, 0x52, 0xbc, 0xbc,
  0x2b, 0x07, 0xbd, 0x3e, 0xcc, 0x43, 0x05, 0xbf, 0x51, 0xe9, 0x9c, 0x3d,
  0x7e, 0x08, 0x75, 0x3e, 0xa5, 0x86, 0x97, 0x3d, 0x2c, 0x65, 0x45, 0x3e,
  0xb8, 0x6e, 0xd8, 0xbd, 0xb5, 0x03, 0x46, 0xbe, 0x53, 0xcf, 0x5c, 0xbd,
  0xdd, 0x55, 0xd5, 0xbe, 0xa7, 0xd3, 0x7b, 0xbe, 0xce, 0x52, 0xa0, 0xbd,
  0x4b, 0x8e, 0x16, 0xbf, 0x9b, 0x72, 0x61, 0x3d, 0xe3, 0x63, 0x09, 0xbe,
  0x34, 0x30, 0xbb, 0xbd, 0xdd, 0x3d, 0x02, 0xbe, 0xbe, 0x91, 0x8e, 0xbe,
  0x08, 0xf9, 0x55, 0x3c, 0x05, 0xb3, 0x99, 0xbe, 0x98, 0x67, 0x14, 0xbe,
  0x06, 0xcd, 0xd4, 0x3e, 0x84, 0x22, 0xd9, 0xbd, 0x5e, 0x04, 0x0f, 0x3b,
  0x71, 0x1f, 0x26, 0xbe, 0x1a, 0x28, 0x84, 0x3e, 0x32, 0x80, 0x48, 0x3e,
  0x84, 0xf5, 0xb0, 0xbe, 0x64, 0x6a, 0x4b, 0xbd, 0xb1, 0x86, 0x05, 0x3e,
  0x1b, 0xd5, 0x8a, 0x3c, 0x20, 0x9e, 0x4b, 0x3d, 0x02, 0x3a, 0x15, 0x3e,
  0x3a, 0x23, 0xf6, 0xbd, 0xd0, 0x76, 0xd9, 0xbe, 0xe3, 0x55, 0x98, 0xbc,
  0x4a, 0xb3, 0x79, 0xbe, 0x12, 0xd4, 0xa5, 0xbc, 0x0d, 0x94, 0xf9, 0x3c,
  0x97, 0x4a, 0xb5, 0xbd, 0x05, 0x1b, 0x8f, 0x3d, 0xef, 0x5b, 0x57, 0xbe,
  0xfb, 0xb6, 0x24, 0xbe, 0x62, 0x39, 0x48, 0x3e, 0xd5, 0x35, 0xa4, 0x3a,
  0xda, 0x54, 0xc3, 0x3d, 0x06, 0x3d, 0x8a, 0xbd, 0x44, 0x9b, 0xdd, 0xbe,
  0x34, 0xad, 0xb3, 0xbd, 0xff, 0xdf, 0x8a, 0xbe, 0xe6, 0xb9, 0x8c, 0x3d,
  0x8e, 0x3c, 0x0a, 0xbd, 0xfb, 0xb5, 0x6e, 0xbe, 0x32, 0x50, 0x87, 0x3d,
  0x95, 0x3b, 0x2d, 0xbc, 0x09, 0x0e, 0xdc, 0x3d, 0x3a, 0x54, 0x2d, 0xbc,
  0x50, 0xc0, 0xfd, 0xbd, 0xdf, 0xaa, 0xc4, 0x3e, 0x7e, 0xcf, 0xa0, 0xbd,
  0x8a, 0x9a, 0x46, 0x3e, 0x77, 0xae, 0xa3, 0x3e, 0x19, 0xa9, 0xe4, 0xbd,
  0x6e, 0x07, 0x43, 0x3c, 0x4a, 0xf3, 0xee, 0xba, 0x9d, 0x8d, 0x4d, 0x3e,
  0x30, 0xf3, 0xf6, 0xbd, 0x50, 0xb6, 0x3c, 0xbc, 0x1b, 0x6d, 0x88, 0x3d,
  0x92, 0x2e, 0xed, 0x3d, 0x19, 0x0a, 0x89, 0xbd, 0xd8, 0x37, 0x8f, 0x3d,
  0x86, 0xf5, 0x10, 0x3e, 0x89, 0xeb, 0x86, 0xbb, 0x1d, 0x56, 0xac, 0x3e,
  0x45, 0xd2, 0x7a, 0xbd, 0x46, 0x84, 0x65, 0xbe, 0xd1, 0x27, 0xc4, 0xbd,
  0xc3, 0xff, 0xb5, 0x3d, 0x64, 0x1a, 0x8b, 0x3c, 0x1b, 0x3a, 0x2d, 0x3e,
  0xf7, 0xe9, 0x98, 0x3c, 0x39, 0xef, 0x80, 0x3c, 0x26, 0x4c, 0x3d, 0x3d,
  0xf0, 0x56, 0x25, 0xbe, 0xbb, 0x21, 0x18, 0xbd, 0x38, 0xbd, 0x04, 0x3e,
  0x4a, 0x07, 0xf1, 0x3c, 0xf1, 0xf7, 0xeb, 0xbc, 0x5c, 0x19, 0x04, 0xbc,
  0x63, 0xee, 0x8c, 0xbd, 0xc5, 0xac, 0x64, 0x3d, 0x98, 0x6e, 0x16, 0x3e,
  0x4e, 0xa4, 0xf8, 0xbd, 0x2d, 0x56, 0xa8, 0xbd, 0x28, 0x44, 0xa3, 0xbe,
  0x18, 0xc8, 0x90, 0xbd, 0x2e, 0xe3, 0x83, 0xbe, 0xf8, 0x11, 0xe3, 0x3e,
  0xff, 0xe1, 0x2a, 0xbd, 0xcf, 0xc0, 0x17, 0x3f, 0x7d, 0x8c, 0x9f, 0xbd,
  0x08, 0xc6, 0x26, 0xbd, 0x52, 0xcc, 0xa2, 0xbe, 0xbc, 0x38, 0x9d, 0xbc,
  0x5d, 0x3e, 0xd8, 0xbe, 0xb9, 0x24, 0xba, 0x3e, 0x7f, 0x93, 0x7f, 0x3e,
  0xdc, 0xf9, 0x7b, 0x3e, 0xf0, 0x9e, 0x9a, 0x3d, 0x8a, 0x2e, 0x7a, 0xbd,
  0xd0, 0xb7, 0x25, 0xbe, 0x2f, 0x7a, 0x69, 0x3c, 0x23, 0x7a, 0x0b, 0xbf,
  0x37, 0x92, 0x40, 0xbe, 0x41, 0xa7, 0x5b, 0xbd, 0xa4, 0x7f, 0xed, 0xbe,
  0x80, 0x92, 0x8c, 0x3e, 0x77, 0x8a, 0x02, 0xbe, 0xb6, 0x5c, 0xf5, 0x3d,
  0x51, 0xc1, 0x66, 0xbd, 0xd0, 0x9d, 0x52, 0xbe, 0xa1, 0x73, 0x97, 0xbe,
  0x00, 0x5a, 0xd7, 0xbd, 0xed, 0x5f, 0xbe, 0xbe, 0xc8, 0xc3, 0x87, 0x3e,
  0x63, 0xaf, 0x2f, 0xbd, 0x53, 0xbe, 0xa6, 0x3e, 0xd1, 0x8a, 0x7d, 0xbe,
  0x6c, 0x1d, 0xd1, 0x3d, 0xc4, 0x8f, 0xb8, 0x3e, 0x56, 0x5d, 0xb4, 0x3d,
  0x6d, 0x70, 0x50, 0xbd, 0x94, 0x8f, 0xba, 0x3d, 0x5b, 0x07, 0x1a, 0xbe,
  0xd2, 0xdf, 0xe1, 0x3d, 0x69, 0x58, 0x40, 0xbe, 0xa6, 0x91, 0x2f, 0x3d,
  0x21, 0xb4, 0xee, 0xbd, 0xee, 0xfa, 0xae, 0x3d, 0x96, 0x6c, 0x66, 0x3e,
  0xc9, 0x8e, 0x0d, 0x3e, 0xfb, 0x3b, 0xc0, 0xbd, 0xd3, 0x50, 0x12, 0xbd,
  0x44, 0xfb, 0x62, 0xbe, 0xc7, 0xb1, 0x82, 0x3d, 0x9c, 0xa5, 0x76, 0xbe,
  0xab, 0x0e, 0x7e, 0xbd, 0x6d, 0x4c, 0xec, 0x3e, 0xda, 0xa5, 0x69, 0x3d,
  0x55, 0x43, 0xf5, 0x3c, 0xad, 0xa3, 0x84, 0xbc, 0xc1, 0x83, 0x60, 0xbe,
  0xd5, 0x76, 0xb3, 0x3b, 0x68, 0x7c, 0x4f, 0xbd, 0xa5, 0xb0, 0x3c, 0x3e,
  0x73, 0xb6, 0x17, 0xbe, 0x0a, 0xee, 0xc5, 0x3d, 0x41, 0x6d, 0x4e, 0x3d,
  0xed, 0x3c, 0x16, 0xbe, 0x74, 0x96, 0x3a, 0x3d, 0x70, 0x02, 0x17, 0x3e,
  0x2b, 0xff, 0x7d, 0xbe, 0xf3, 0xaf, 0x02, 0xbe, 0x6c, 0xc2, 0xf0, 0xbd,
  0x81, 0x8f, 0x39, 0xbd, 0x65, 0x03, 0x39, 0xbd, 0x39, 0x60, 0xa0, 0xbe,
  0x65, 0x83, 0x80, 0xbd, 0x90, 0xfa, 0x9f, 0x3d, 0x2b, 0xeb, 0x86, 0xbe,
  0x79, 0x83, 0x2b, 0xbe, 0x37, 0x2c, 0xd4, 0xbe, 0xfe, 0x29, 0x07, 0xbe,
  0x00, 0x0e, 0x73, 0x3e, 0xb7, 0xf1, 0x72, 0xbe, 0x9c, 0x6f, 0xde, 0x3d,
  0xa4, 0xde, 0xda, 0xbd, 0x4e, 0x2f, 0xb7, 0xbe, 0xcb, 0x9d, 0x35, 0xbe,
  0xff, 0x71, 0x82, 0xbe, 0x1c, 0xea, 0xaf, 0x3e, 0xbe, 0xeb, 0x1e, 0x3e,
  0x4f, 0xa0, 0x1a, 0xbd, 0xde, 0x68, 0x07, 0xbe, 0xbe, 0xde, 0x6c, 0xbd,
  0x5e, 0xa2, 0xbf, 0xbd, 0xd3, 0x8d, 0x62, 0xbe, 0x91, 0x6b, 0xc1, 0xbe,
  0x74, 0x5c, 0x32, 0xbe, 0x3c, 0x3a, 0x65, 0x3d, 0xa8, 0xda, 0x7c, 0xbe,
  0x2f, 0x4c, 0xf3, 0xbd, 0xcd, 0x9c, 0x03, 0x3d, 0x43, 0xe7, 0x1c, 0xbf,
  0xfa, 0xe6, 0xa0, 0xbd, 0x30, 0x56, 0x03, 0xbe, 0x19, 0xb4, 0x2e, 0xbe,
  0x91, 0x7d, 0x2a, 0xbe, 0x82, 0xf8, 0xf3, 0x3d, 0x21, 0x29, 0x7c, 0xbe,
  0x6a, 0x18, 0x7a, 0x3e, 0x89, 0xf8, 0x80, 0xbf, 0x40, 0xd0, 0xf6, 0xbd,
  0x2b, 0x58, 0x39, 0xbf, 0xb7, 0xdb, 0x98, 0x3e, 0x3c, 0xce, 0x9d, 0xbe,
  0x26, 0x4d, 0x04, 0xbc, 0xb9, 0x6d, 0x25, 0xbe, 0x84, 0x9a, 0x59, 0xbd,
  0xe8, 0x94, 0x32, 0x3e, 0x3b, 0xf0, 0x8f, 0xbe, 0xae, 0x08, 0x96, 0xbd,
  0x4c, 0x80, 0x85, 0x3e, 0x81, 0x38, 0x8f, 0xbd, 0x23, 0x8d, 0xaf, 0xbd,
  0xd0, 0x61, 0x06, 0xbe, 0x09, 0xb3, 0x8d, 0xbd, 0x4b, 0x16, 0xa3, 0x3e,
  0x1c, 0xa5, 0xed, 0xbb, 0x46, 0x96, 0x91, 0x3d, 0x20, 0xf0, 0x45, 0xbe,
  0x40, 0xe9, 0x66, 0xbe, 0xe1, 0xf7, 0xb1, 0x3c, 0xe2, 0x79, 0x71, 0xbe,
  0xb2, 0x69, 0xd1, 0xbc, 0xf7, 0xdc, 0xac, 0xbe, 0xce, 0x8e, 0x4e, 0xbe,
  0x45, 0xe4, 0x80, 0xbe, 0xed, 0x45, 0xbb, 0xbc, 0x43, 0xc5, 0x27, 0xbf,
  0x7b, 0x30, 0x85, 0x3d, 0x28, 0x43, 0x2c, 0xbe, 0xf9, 0xf3, 0xc4, 0xbb,
  0x64, 0xba, 0xd4, 0x3e, 0x41, 0x97, 0x48, 0xbf, 0xa3, 0xde, 0x1c, 0xbe,
  0x79, 0x63, 0xa2, 0x3e, 0xbc, 0x44, 0x05, 0xbf, 0xe1, 0xf4, 0x2a, 0xbd,
  0xea, 0xc4, 0x35, 0xbe, 0x90, 0xab, 0x6d, 0xbd, 0xae, 0xbe, 0xd3, 0xbc,
  0x0d, 0xc9, 0xf9, 0xbd, 0x65, 0x0f, 0x01, 0x3f, 0x03, 0x29, 0x57, 0xbe,
  0x47, 0x05, 0x7e, 0x3b, 0x2e, 0xd9, 0x9c, 0xbd, 0xbd, 0x8f, 0x89, 0x3b,
  0x45, 0x8c, 0xa7, 0xbd, 0xc8, 0xc6, 0x83, 0x3e, 0x9f, 0x44, 0x53, 0x3e,
  0x41, 0xc9, 0xb9, 0x3d, 0x32, 0x34, 0xb9, 0xbd, 0xb0, 0x2f, 0x58, 0x3e,
  0xc9, 0x7b, 0xb5, 0xbd, 0x67, 0x99, 0x92, 0x3c, 0x3c, 0x03, 0x28, 0xbf,
  0x6c, 0xc9, 0x3c, 0x3c, 0x83, 0x21, 0x24, 0x3f, 0x70, 0x0c, 0x98, 0x3c,
  0x9c, 0x0a, 0xd9, 0x3e, 0x39, 0x8e, 0xf8, 0xbd, 0x56, 0x9d, 0x95, 0xbe,
  0xf5, 0xbc, 0x5f, 0xbd, 0x65, 0xba, 0x2f, 0xbf, 0x9c, 0x1f, 0x40, 0x3d,
  0xd0, 0x62, 0x24, 0xbe, 0x4d, 0x8e, 0x95, 0xbd, 0xc1, 0x44, 0x19, 0x3d,
  0x97, 0xdb, 0x46, 0xbe, 0x57, 0xf6, 0xeb, 0xbd, 0xbc, 0x08, 0xf0, 0xbc,
  0x3d, 0xd4, 0xa2, 0xbe, 0x98, 0x9c, 0x4a, 0xbd, 0xa7, 0x28, 0x46, 0xbe,
  0xc6, 0x1e, 0xb6, 0xbe, 0xbe, 0xb0, 0x1f, 0x3e, 0xb6, 0xae, 0x5c, 0xbe,
  0x0d, 0x5a, 0x90, 0xbb, 0x57, 0x54, 0xf7, 0xbd, 0xfb, 0xe1, 0xb0, 0x3d,
  0x93, 0x47, 0x42, 0x3e, 0xdb, 0x5b, 0xa3, 0xbe, 0x3b, 0x8d, 0x90, 0xbe,
  0x90, 0x52, 0x82, 0x3e, 0xde, 0xce, 0x10, 0x3e, 0x9b, 0x93, 0x9d, 0xbe,
  0x08, 0xf8, 0x5e, 0xbe, 0xef, 0xbb, 0x31, 0x3d, 0xf3, 0x04, 0x5e, 0xbe,
  0x06, 0xc4, 0x0f, 0xbd, 0x1d, 0xb2, 0x86, 0xbd, 0x32, 0xae, 0xd7, 0xbd,
  0xb4, 0xef, 0xbe, 0x3e, 0x19, 0xa6, 0x8d, 0x3d, 0x5a, 0xaf, 0x87, 0xbe,
  0xd3, 0xcf, 0x4c, 0xbd, 0xd9, 0x07, 0x32, 0xbe, 0x97, 0x43, 0x37, 0xbd,
  0x18, 0xf8, 0x85, 0xbd, 0xb9, 0x2e, 0x92, 0xbb, 0x4f, 0xcb, 0x36, 0xbe,
  0x14, 0x71, 0x0a, 0xbd, 0xc7, 0xc3, 0xab, 0xbe, 0x11, 0x04, 0x1d, 0xbd,
  0x83, 0x29, 0x52, 0x3d, 0x4f, 0x45, 0xda, 0x3d, 0xed, 0x84, 0x9a, 0xbd,
  0x15, 0x3e, 0xb1, 0x3d, 0x5a, 0x75, 0x56, 0x3d, 0xbe, 0xe9, 0x1c, 0xbd,
  0xcd, 0xf5, 0x8e, 0xbe, 0xaa, 0x99, 0x8b, 0x3d, 0x4d, 0x9f, 0x89, 0x3d,
  0x43, 0x2c, 0x40, 0x3c, 0x4c, 0x20, 0x83, 0x3d, 0x89, 0x41, 0x0b, 0xbe,
  0x6c, 0x86, 0x3b, 0xbd, 0x6c, 0x79, 0xaa, 0xbe, 0xe4, 0x91, 0x36, 0xbe,
  0x46, 0x99, 0xc7, 0xbc, 0x8e, 0xb9, 0x1b, 0xbf, 0x1c, 0x6d, 0x04, 0xbe,
  0x8c, 0x93, 0x5b, 0xbe, 0x6f, 0x6f, 0x22, 0xbf, 0xcf, 0x25, 0x11, 0xbd,
  0x3b, 0xed, 0x00, 0x3f, 0xbc, 0xfd, 0x0c, 0xbe, 0xa9, 0x16, 0xb0, 0xbc,
  0x02, 0xd4, 0x15, 0xbf, 0x25, 0x74, 0xe4, 0xbd, 0x48, 0xe5, 0x97, 0xbe,
  0xfa, 0x6f, 0x24, 0x3e, 0x83, 0xad, 0x02, 0xbd, 0x0d, 0xb6, 0x91, 0x3e,
  0xe7, 0x75, 0x90, 0xbd, 0x2e, 0xb8, 0x77, 0x3d, 0xce, 0xb7, 0xed, 0xbd,
  0x13, 0x5b, 0x44, 0xbe, 0xe3, 0x26, 0xc8, 0x3e, 0xff, 0xa6, 0xbf, 0x3e,
  0x2b, 0x50, 0x45, 0xbf, 0x66, 0x47, 0x8a, 0xbd, 0x25, 0x1e, 0xf2, 0xbd,
  0x39, 0x9d, 0xcb, 0xbb, 0xb4, 0xf5, 0xb9, 0xbe, 0xf8, 0x05, 0xa1, 0xbe,
  0x78, 0x95, 0x87, 0xbe, 0x7a, 0x8b, 0x00, 0xbf, 0xcc, 0xe0, 0xe7, 0xbd,
  0x9e, 0xa2, 0xc7, 0xbc, 0x54, 0x40, 0x36, 0xbe, 0xfc, 0x6d, 0x5e, 0xbd,
  0x68, 0xc9, 0x37, 0xbf, 0x67, 0x4b, 0x64, 0x3c, 0x7f, 0xd4, 0xdc, 0xbe,
  0xf0, 0x72, 0x8e, 0x3d, 0x09, 0x64, 0xda, 0xbe, 0x05, 0xbc, 0x0b, 0x3f,
  0xbe, 0x13, 0x73, 0xbe, 0x1d, 0xec, 0x88, 0x3e, 0x1d, 0x80, 0x56, 0x3d,
  0x40, 0x7a, 0x11, 0xbf, 0x69, 0x2b, 0xfa, 0x3d, 0x02, 0x7b, 0x2f, 0x3e,
  0x79, 0x2c, 0x1b, 0xbe, 0xa8, 0xdf, 0xc7, 0xbe, 0x6b, 0xe5, 0xf7, 0xbd,
  0x76, 0xa6, 0x25, 0xbe, 0xff, 0x75, 0xa6, 0xbd, 0xaf, 0xd8, 0xb4, 0x3d,
  0x5d, 0x08, 0xc7, 0x3d, 0x6a, 0xa7, 0xb4, 0xbe, 0x44, 0x8a, 0x3e, 0x3e,
  0x79, 0x89, 0xaf, 0xbe, 0x78, 0xe1, 0x82, 0xbd, 0x52, 0xa4, 0x00, 0xbe,
  0xf9, 0x39, 0x29, 0x3e, 0x44, 0x4d, 0xa4, 0x3c, 0x6e, 0x39, 0xac, 0xbd,
  0x85, 0x11, 0x8d, 0xbd, 0x5c, 0xf0, 0xae, 0xbd, 0x93, 0xf5, 0x08, 0xbe,
  0xe7, 0x2f, 0x87, 0xbe, 0xaf, 0x9c, 0x87, 0xbd, 0xa3, 0xda, 0x36, 0xbd,
  0x7b, 0x6e, 0x22, 0xbe, 0x46, 0x65, 0x34, 0x3e, 0xa8, 0xb5, 0x9a, 0xbd,
  0x44, 0xb8, 0x93, 0x3c, 0x73, 0xcf, 0xdf, 0xb9, 0x06, 0x47, 0x49, 0xbe,
  0x02, 0x6d, 0x60, 0xbd, 0xbd, 0x8d, 0xd0, 0xbd, 0xbc, 0x5e, 0x57, 0x3c,
  0x29, 0xb2, 0x04, 0x3d, 0x14, 0xfe, 0x30, 0x3d, 0x70, 0xdb, 0x72, 0x3d,
  0x1c, 0xe1, 0x13, 0x3f, 0xcc, 0x09, 0x63, 0xbe, 0x8a, 0x2a, 0x07, 0x3e,
  0xc0, 0xaf, 0xed, 0x3d, 0xc8, 0xbf, 0x23, 0xbe, 0xdc, 0xb7, 0x4d, 0xbd,
  0x25, 0xfd, 0x54, 0x3e, 0x5b, 0xe4, 0x99, 0xbd, 0xdb, 0x84, 0xb8, 0xbd,
  0x02, 0xeb, 0xe3, 0xbd, 0xb7, 0xbb, 0x32, 0xbd, 0x9e, 0x25, 0xc7, 0x3d,
  0x07, 0x2d, 0xa6, 0xbd, 0x2a, 0x4f, 0x03, 0x3e, 0x0c, 0x37, 0x01, 0x3e,
  0x0a, 0xdf, 0xff, 0xff, 0x10, 0x00, 0x00, 0x00, 0x08, 0x00, 0x00, 0x00,
  0x1c, 0x00, 0x00, 0x00, 0x38, 0x00, 0x00, 0x00, 0x04, 0x00, 0x00, 0x00,
  0x10, 0x00, 0x00, 0x00, 0x04, 0x00, 0x00, 0x00, 0x01, 0x00, 0x00, 0x00,
  0x08, 0x00, 0x00, 0x00, 0x1a, 0x00, 0x00, 0x00, 0x73, 0x65, 0x71, 0x75,
  0x65, 0x6e, 0x74, 0x69, 0x61, 0x6c, 0x2f, 0x63, 0x6f, 0x6e, 0x76, 0x32,
  0x64, 0x5f, 0x31, 0x2f, 0x43, 0x6f, 0x6e, 0x76, 0x32, 0x44, 0x00, 0x00,
  0x04, 0xdf, 0xff, 0xff, 0xfa, 0xdf, 0xff, 0xff, 0x04, 0x00, 0x00, 0x00,
  0x80, 0x01, 0x00, 0x00, 0x70, 0x9d, 0x4a, 0xbe, 0xd3, 0xa7, 0x2c, 0xbe,
  0x49, 0xa1, 0x50, 0xbe, 0x8f, 0xc1, 0x3b, 0x3d, 0x8a, 0xde, 0xe4, 0x3d,
  0x37, 0x52, 0x55, 0x3d, 0x5b, 0x57, 0x48, 0xbe, 0x7c, 0xb2, 0x3c, 0x3e,
  0xdf, 0x12, 0x79, 0xbe, 0x66, 0x72, 0x65, 0x3d, 0x9f, 0xea, 0x08, 0xbe,
  0x5a, 0x3d, 0xf5, 0x3c, 0xb9, 0xf5, 0xb1, 0x3d, 0x17, 0x13, 0x3b, 0xbd,
  0x07, 0x55, 0x31, 0xbd, 0x16, 0xfc, 0x55, 0xbe, 0xb2, 0x95, 0x8c, 0xbe,
  0x43, 0x62, 0xe3, 0xbe, 0x40, 0x6c, 0x39, 0x3e, 0x5f, 0x91, 0xc1, 0x3e,
  0x17, 0x7f, 0x84, 0x3e, 0x7b, 0xbd, 0x78, 0x3d, 0x12, 0xcc, 0x3d, 0x3d,
  0xed, 0xe6, 0xb6, 0x3e, 0xfd, 0xb0, 0x2a, 0xbe, 0x71, 0x81, 0x85, 0xbb,
  0xd4, 0xe3, 0x59, 0x3e, 0x61, 0x68, 0x04, 0xbc, 0xeb, 0x49, 0xbd, 0x3b,
  0x74, 0x79, 0x24, 0x3d, 0xb3, 0x25, 0x59, 0xbd, 0x5a, 0xb6, 0x11, 0x3c,
  0x0f, 0x65, 0x89, 0xbc, 0x09, 0x6e, 0x0a, 0xbe, 0x16, 0x8f, 0x0e, 0x3e,
  0x36, 0xfb, 0xe5, 0x3c, 0x26, 0x6b, 0x0f, 0x3e, 0x05, 0x4d, 0x12, 0xbd,
  0xef, 0x97, 0xfc, 0xbd, 0x17, 0x1d, 0x2b, 0x3e, 0x23, 0x7e, 0xbb, 0xbd,
  0xc3, 0x18, 0xa8, 0xbd, 0xb0, 0xb9, 0x01, 0xbe, 0x02, 0xc2, 0xad, 0x3d,
  0xdc, 0xee, 0x93, 0xbc, 0x52, 0x96, 0x2f, 0x3f, 0xdb, 0x71, 0x89, 0x3e,
  0xc0, 0x20, 0xd3, 0x3d, 0x8e, 0x67, 0x18, 0x3e, 0x02, 0x6d, 0xbf, 0x3d,
  0x3c, 0x3f, 0x26, 0x3e, 0x51, 0x03, 0xbc, 0x3e, 0x5b, 0xe0, 0xa8, 0x3e,
  0xd7, 0x68, 0x86, 0x3e, 0x75, 0x52, 0x99, 0xbd, 0xee, 0xc9, 0x01, 0x3c,
  0x9a, 0x76, 0x34, 0xbe, 0xc2, 0xee, 0xce, 0xbe, 0x2e, 0xfd, 0xc2, 0xbe,
  0x01, 0xde, 0x02, 0xbe, 0x40, 0xa6, 0x25, 0x3e, 0x94, 0xa2, 0x19, 0x3d,
  0x1f, 0x40, 0x2e, 0xbe, 0x78, 0x80, 0x0a, 0xbd, 0xe0, 0xcc, 0x53, 0x3e,
  0x73, 0x2a, 0xf2, 0xbd, 0xba, 0x2e, 0xb9, 0xbb, 0xfb, 0xa9, 0x3c, 0xbe,
  0xbf, 0xdc, 0x5e, 0xbe, 0x09, 0x3f, 0x8b, 0x3d, 0xe9, 0x45, 0x36, 0xbe,
  0x2d, 0x73, 0x9b, 0x3c, 0x4b, 0xc6, 0x93, 0x3e, 0x06, 0x36, 0xde, 0xbd,
  0xd9, 0x16, 0x95, 0x3d, 0x51, 0x75, 0xcb, 0x3e, 0xbc, 0x38, 0xd3, 0x3e,
  0xa7, 0xb7, 0xdf, 0x3d, 0x95, 0x85, 0xa8, 0xbe, 0x2f, 0xf5, 0xe5, 0xbc,
  0x86, 0x0d, 0x23, 0xbd, 0x57, 0xd8, 0x4e, 0xbe, 0xad, 0x48, 0x81, 0xbe,
  0x99, 0xff, 0x7b, 0xbe, 0xf9, 0x54, 0x3c, 0xba, 0x88, 0x57, 0x96, 0xbe,
  0xc5, 0xdd, 0x0a, 0x3d, 0x99, 0xfc, 0xb5, 0x3b, 0x91, 0x98, 0xac, 0xbe,
  0x02, 0x46, 0x06, 0xbe, 0x44, 0x95, 0x07, 0x3d, 0x3c, 0xee, 0x31, 0x3e,
  0x61, 0x8a, 0xa2, 0x3c, 0x84, 0x7a, 0x91, 0xbc, 0xf1, 0x6a, 0xed, 0x3e,
  0xfc, 0x34, 0xe0, 0x3d, 0xe2, 0xe0, 0xff, 0xff, 0x10, 0x00, 0x00, 0x00,
  0x07, 0x00, 0x00, 0x00, 0x1c, 0x00, 0x00, 0x00, 0x38, 0x00, 0x00, 0x00,
  0x04, 0x00, 0x00, 0x00, 0x08, 0x00, 0x00, 0x00, 0x04, 0x00, 0x00, 0x00,
  0x03, 0x00, 0x00, 0x00, 0x01, 0x00, 0x00, 0x00, 0x18, 0x00, 0x00, 0x00,
  0x73, 0x65, 0x71, 0x75, 0x65, 0x6e, 0x74, 0x69, 0x61, 0x6c, 0x2f, 0x63,
  0x6f, 0x6e, 0x76, 0x32, 0x64, 0x2f, 0x43, 0x6f, 0x6e, 0x76, 0x32, 0x44,
  0x00, 0x00, 0x00, 0x00, 0xdc, 0xe0, 0xff, 0xff, 0xd2, 0xe1, 0xff, 0xff,
  0x04, 0x00, 0x00, 0x00, 0xc0, 0x00, 0x00, 0x00, 0x51, 0x5a, 0x94, 0x3e,
  0x6e, 0x92, 0x33, 0x3e, 0x3a, 0x53, 0x44, 0xbe, 0xbd, 0x2c, 0xbb, 0xbe,
  0x2d, 0x68, 0x51, 0xbe, 0xf8, 0x2c, 0xaa, 0xbd, 0x2e, 0xbb, 0xa3, 0x3d,
  0x1f, 0x40, 0xbf, 0x3d, 0xb4, 0x7c, 0x0b, 0xbe, 0x4f, 0xae, 0x84, 0xbe,
  0xcd, 0x19, 0xa9, 0x3c, 0xb2, 0x66, 0xe1, 0xbe, 0xab, 0xdc, 0x41, 0x3e,
  0xd8, 0xc3, 0x1a, 0xbe, 0xe3, 0xa2, 0x32, 0xbd, 0x28, 0x0b, 0xba, 0xbe,
  0x83, 0xf4, 0x6a, 0x3d, 0x35, 0x85, 0x81, 0x3e, 0x56, 0x12, 0x7e, 0xbe,
  0x4d, 0xb1, 0x9c, 0xbe, 0x5b, 0x23, 0x68, 0xbe, 0x87, 0x6c, 0x9f, 0xbd,
  0xbd, 0xc8, 0x41, 0xbe, 0xe6, 0x41, 0x16, 0x3e, 0x63, 0x84, 0x5c, 0xbd,
  0x59, 0x8a, 0x60, 0xbe, 0xa9, 0x1c, 0x3f, 0x3e, 0xcd, 0x06, 0x86, 0xbe,
  0x01, 0xe1, 0x51, 0x3e, 0x6d, 0xb6, 0xec, 0xbd, 0x04, 0x1a, 0x67, 0x3e,
  0x6f, 0x3e, 0xcb, 0x3e, 0x5c, 0xf8, 0x90, 0x3e, 0x01, 0x35, 0x56, 0x3e,
  0x69, 0xb3, 0x28, 0xbe, 0x90, 0xb5, 0xb7, 0xbe, 0x7e, 0x47, 0x60, 0xbe,
  0x6e, 0xe5, 0xa0, 0xbd, 0xa6, 0xb4, 0x94, 0xbe, 0xd8, 0xa8, 0xba, 0x3d,
  0x04, 0xee, 0x29, 0xbe, 0x6b, 0x67, 0x45, 0xbe, 0x16, 0x07, 0x29, 0x3e,
  0x40, 0x7c, 0x0c, 0xbe, 0x8c, 0xdd, 0xa2, 0xbe, 0x7d, 0x35, 0x7a, 0xbd,
  0xf7, 0x4d, 0x9a, 0xbe, 0xb4, 0x48, 0xcd, 0x3e, 0xfa, 0xe1, 0xff, 0xff,
  0x10, 0x00, 0x00, 0x00, 0x06, 0x00, 0x00, 0x00, 0x14, 0x00, 0x00, 0x00,
  0x30, 0x00, 0x00, 0x00, 0x02, 0x00, 0x00, 0x00, 0x03, 0x00, 0x00, 0x00,
  0x10, 0x00, 0x00, 0x00, 0x19, 0x00, 0x00, 0x00, 0x73, 0x65, 0x71, 0x75,
  0x65, 0x6e, 0x74, 0x69, 0x61, 0x6c, 0x2f, 0x64, 0x65, 0x6e, 0x73, 0x65,
  0x5f, 0x31, 0x2f, 0x4d, 0x61, 0x74, 0x4d, 0x75, 0x6c, 0x00, 0x00, 0x00,
  0xec, 0xe1, 0xff, 0xff, 0xe2, 0xe2, 0xff, 0xff, 0x04, 0x00, 0x00, 0x00,
  0x00, 0x1c, 0x00, 0x00, 0xd1, 0x72, 0x78, 0xbe, 0xce, 0xcf, 0x19, 0xbd,
  0xb4, 0x3d, 0xcf, 0x3d, 0xd1, 0x23, 0x57, 0x3d, 0x11, 0xaa, 0x09, 0xbe,
  0xa6, 0x45, 0x42, 0xbe, 0xf4, 0x96, 0x4c, 0xbe, 0xee, 0x4b, 0x66, 0xbc,
  0xbf, 0xb6, 0x46, 0x3e, 0xca, 0x25, 0xbe, 0x3c, 0x32, 0x5a, 0x1a, 0xbd,
  0x86, 0x31, 0xfb, 0x3b, 0x50, 0x44, 0x77, 0x3b, 0x5c, 0xbc, 0x2a, 0xbe,
  0x1e, 0xcc, 0x5e, 0x3c, 0x8e, 0xe1, 0x4a, 0x3d, 0x0e, 0xe6, 0xf9, 0xba,
  0xb7, 0xad, 0x14, 0xbe, 0x87, 0x4c, 0x06, 0x3e, 0xd6, 0xe8, 0x80, 0x3d,
  0xfc, 0xa3, 0x07, 0xbe, 0x27, 0xa2, 0x6f, 0xbd, 0x5b, 0x66, 0xca, 0x3d,
  0xdb, 0xb4, 0x03, 0x3c, 0x90, 0x1b, 0x64, 0x3d, 0x16, 0x4d, 0x9e, 0xbd,
  0x65, 0xf5, 0x75, 0xbe, 0x7f, 0xbf, 0x87, 0x3d, 0x3f, 0xcb, 0x70, 0xbe,
  0x35, 0xaa, 0x9d, 0xbd, 0xfb, 0xb6, 0xa3, 0x3d, 0x32, 0x0a, 0x15, 0x3e,
  0x65, 0xbe, 0xd2, 0x3d, 0x07, 0xd5, 0x70, 0x3d, 0xb7, 0xa6, 0x9a, 0xbd,
  0x93, 0x6d, 0x22, 0xbe, 0x29, 0x03, 0xb9, 0xbd, 0xea, 0xed, 0xd6, 0xbd,
  0xdc, 0x5f, 0x5f, 0xbe, 0x56, 0x5b, 0x9a, 0xbd, 0x45, 0x7e, 0xb3, 0x3c,
  0x2b, 0x9b, 0xdd, 0xbc, 0x4e, 0x8e, 0x92, 0x3d, 0x0a, 0xa1, 0x89, 0xbe,
  0x49, 0x55, 0x36, 0x3d, 0x0f, 0x12, 0x13, 0x3e, 0x77, 0xfd, 0x92, 0xbd,
  0xad, 0x22, 0x58, 0xbd, 0xdc, 0x85, 0x26, 0xbd, 0xf9, 0xa3, 0x5e, 0xbe,
  0xed, 0x7a, 0x08, 0xbe, 0xb1, 0xf5, 0x2d, 0x3e, 0x3c, 0x90, 0x0b, 0xbe,
  0x40, 0x31, 0xba, 0xbe, 0x00, 0xb4, 0x4c, 0xbe, 0x81, 0x41, 0x51, 0xbd,
  0x26, 0x69, 0x46, 0xbc, 0x99, 0x2a, 0x7b, 0xbe, 0x2c, 0xf8, 0x03, 0xbe,
  0xe2, 0x0b, 0x2e, 0xbe, 0x75, 0xaf, 0x48, 0x3e, 0x0a, 0x61, 0x12, 0xbe,
  0xac, 0xaa, 0x4c, 0x3d, 0x9b, 0x98, 0x0c, 0xbe, 0xa2, 0x59, 0xae, 0x3d,
  0x6d, 0xca, 0x57, 0xbd, 0xeb, 0xcf, 0xec, 0xbc, 0xba, 0xc9, 0x34, 0xbc,
  0xbd, 0x93, 0xaa, 0xbc, 0xf5, 0x95, 0xc8, 0xbd, 0x28, 0xac, 0xa3, 0xbd,
  0xe2, 0x87, 0xb4, 0x3b, 0x7c, 0xd6, 0xc0, 0x3c, 0x8c, 0xe3, 0x64, 0xbe,
  0xa4, 0xb2, 0x0e, 0xbe, 0x25, 0xfa, 0xb0, 0x3b, 0xaf, 0xfe, 0x85, 0xbd,
  0xcd, 0xa7, 0xda, 0xbd, 0xdb, 0x7f, 0xe2, 0xbd, 0xa3, 0x1e, 0xfb, 0xbd,
  0xfd, 0x26, 0x10, 0xbe, 0x69, 0x91, 0x82, 0xbd, 0x59, 0xce, 0x0e, 0xbc,
  0x9c, 0x61, 0x84, 0xbd, 0x61, 0x38, 0xd8, 0xbc, 0x4d, 0x10, 0x9d, 0xbe,
  0x22, 0xf5, 0x49, 0xbe, 0xf9, 0xa9, 0x89, 0xbe, 0xb5, 0xb4, 0xb6, 0xbd,
  0x4a, 0x0f, 0x55, 0xbd, 0xc4, 0xa3, 0xf7, 0xbd, 0x00, 0x44, 0x32, 0xbe,
  0xc6, 0xb4, 0x4d, 0x3d, 0xc1, 0xb1, 0x05, 0x3e, 0x52, 0xf6, 0xb5, 0xba,
  0x62, 0x78, 0x7e, 0xbe, 0xde, 0x5d, 0x22, 0xbe, 0x62, 0xd5, 0x97, 0x3d,
  0xa6, 0xdd, 0x60, 0x3d, 0xd6, 0x9c, 0xf2, 0x3c, 0xff, 0x03, 0xb2, 0xbd,
  0x1d, 0x84, 0xbe, 0xbd, 0x7b, 0xd2, 0x44, 0xbb, 0x52, 0x5b, 0xf0, 0xbd,
  0x60, 0xbc, 0x6a, 0x3d, 0xaa, 0xf3, 0xf4, 0xbd, 0xd9, 0xd8, 0x52, 0xbe,
  0x8e, 0xa2, 0x95, 0xbe, 0x11, 0x5a, 0x26, 0xbe, 0x32, 0x84, 0x3a, 0xbe,
  0xaf, 0x3e, 0xa2, 0x3d, 0x0f, 0x07, 0x88, 0x3d, 0xfa, 0xbb, 0xa7, 0x3e,
  0xcc, 0x55, 0x88, 0x3e, 0x00, 0x37, 0xbc, 0xbd, 0x52, 0xb0, 0x5a, 0xbe,
  0x88, 0x26, 0xff, 0x3c, 0xaf, 0x11, 0x65, 0x3d, 0xef, 0x8d, 0xba, 0x3c,
  0xb5, 0x04, 0x43, 0x3e, 0xf9, 0xf6, 0x45, 0xbe, 0x06, 0xd3, 0x25, 0x3e,
  0x46, 0x89, 0x55, 0x3e, 0xef, 0x1d, 0xaa, 0xbd, 0x5b, 0x35, 0x1a, 0xbe,
  0xab, 0x4f, 0xd9, 0xbd, 0x8b, 0x3d, 0xa5, 0x3e, 0x13, 0x75, 0xf8, 0xbc,
  0xb2, 0xb9, 0xbc, 0x3e, 0x5a, 0x77, 0xd6, 0xbe, 0x9f, 0x49, 0x04, 0x3e,
  0x36, 0x2e, 0xee, 0xbd, 0xf7, 0x83, 0x93, 0xbd, 0xb9, 0x34, 0xdb, 0x3d,
  0x39, 0xec, 0xbc, 0x3d, 0xc8, 0x3c, 0x15, 0x3e, 0xbf, 0xb4, 0x86, 0xbd,
  0x48, 0xc5, 0xc3, 0x3c, 0x74, 0xd0, 0x05, 0xbd, 0x2d, 0x7e, 0x30, 0xbe,
  0xcd, 0x40, 0x4e, 0xbc, 0xbe, 0xd8, 0x35, 0xbd, 0x7e, 0x4c, 0xe9, 0xbd,
  0x16, 0x21, 0x3c, 0xbd, 0xbb, 0x4c, 0x60, 0xbe, 0x48, 0xab, 0x12, 0xbf,
  0xb1, 0x42, 0x58, 0xbe, 0x53, 0x06, 0x9b, 0xbe, 0x98, 0xc2, 0xf1, 0x3d,
  0xbe, 0x48, 0x11, 0xbd, 0x22, 0xd3, 0xe9, 0xbd, 0x0a, 0x10, 0x28, 0xbf,
  0x1d, 0x85, 0x56, 0xbd, 0x0b, 0xcf, 0xa0, 0xbc, 0xb7, 0x80, 0x03, 0xbe,
  0xe8, 0xe3, 0x85, 0xbc, 0xce, 0xb2, 0x23, 0xbe, 0x5a, 0xfb, 0x1e, 0x3e,
  0x82, 0xb8, 0xd0, 0xbe, 0xf7, 0xec, 0xec, 0xbe, 0xa0, 0xea, 0xc5, 0xbe,
  0x1a, 0x7d, 0x17, 0xbd, 0xaa, 0x71, 0x0b, 0x3e, 0xc4, 0x9a, 0x09, 0xbc,
  0xbf, 0xe7, 0xf0, 0x3d, 0xe9, 0xd9, 0x00, 0xbe, 0x12, 0x59, 0x9d, 0xbe,
  0x24, 0xbc, 0x38, 0xbf, 0x2e, 0x7e, 0x7e, 0x3d, 0x73, 0x61, 0x0c, 0xbb,
  0xd1, 0x41, 0x89, 0xbc, 0x9d, 0x84, 0x0a, 0xbe, 0xbe, 0x74, 0x24, 0x3e,
  0xde, 0xca, 0xfa, 0x3d, 0xf6, 0x14, 0xda, 0xbd, 0xb3, 0x62, 0x20, 0xbe,
  0xbc, 0xa8, 0x71, 0xbe, 0x61, 0xf4, 0x23, 0xbe, 0x36, 0xb2, 0x91, 0xbd,
  0x08, 0xd7, 0x85, 0xbd, 0x6c, 0xe4, 0x41, 0x3c, 0xfd, 0xcb, 0x88, 0xbd,
  0x93, 0xc4, 0x69, 0xbe, 0x59, 0x99, 0x69, 0xbe, 0x05, 0x3f, 0x93, 0xbd,
  0x6b, 0xe4, 0x0d, 0x3c, 0x10, 0x1c, 0x35, 0x3d, 0x95, 0xc0, 0xc2, 0xbd,
  0x0a, 0xf1, 0x1b, 0xbe, 0xa1, 0xbd, 0x74, 0xbc, 0x40, 0x92, 0x98, 0x3d,
  0x1f, 0x56, 0xea, 0xbd, 0x17, 0x0a, 0xa5, 0xbd, 0x33, 0xba, 0x33, 0xbe,
  0xdb, 0x01, 0x3e, 0xbe, 0x84, 0x31, 0xa1, 0xbe, 0xe8, 0xa7, 0xdf, 0xbd,
  0x8e, 0xd2, 0x89, 0xbd, 0x53, 0x30, 0x6f, 0xbe, 0x5c, 0x65, 0xcb, 0xbe,
  0x15, 0xf7, 0x44, 0xbe, 0xd3, 0xf5, 0x6a, 0xbe, 0x66, 0x4c, 0x36, 0xbd,
  0x8f, 0x2c, 0x89, 0xbd, 0x8f, 0x12, 0xce, 0xbd, 0x3d, 0xb4, 0x16, 0xbd,
  0x24, 0x47, 0x4a, 0xbc, 0xa1, 0x79, 0x16, 0xbe, 0x57, 0x23, 0xb2, 0xbd,
  0x7e, 0x92, 0x0a, 0xbe, 0x42, 0x59, 0xa6, 0xbd, 0x93, 0x5b, 0x0b, 0xbd,
  0xf6, 0x91, 0x85, 0x3c, 0x47, 0x81, 0x42, 0xbd, 0xb9, 0xee, 0xae, 0xbd,
  0x37, 0xbb, 0x59, 0xbe, 0x3b, 0xcc, 0x68, 0x3c, 0x31, 0x7e, 0x08, 0x3a,
  0xeb, 0x12, 0x34, 0x3d, 0xca, 0x2c, 0xf4, 0xbc, 0x1a, 0x1c, 0x0f, 0xbd,
  0x7f, 0x5e, 0x3e, 0xbe, 0xc3, 0xd5, 0xaf, 0xbd, 0x30, 0xf7, 0x1c, 0xbe,
  0x23, 0x65, 0x01, 0x3e, 0xc0, 0x37, 0x81, 0xbe, 0xa9, 0x38, 0x0c, 0x3f,
  0xc3, 0xcc, 0xa2, 0xbc, 0xab, 0x80, 0xc8, 0xbc, 0xa5, 0x8d, 0xd3, 0xbd,
  0xd5, 0x7f, 0x7b, 0xbe, 0x8b, 0x89, 0x87, 0xbe, 0x0c, 0xb4, 0xfb, 0x3e,
  0x21, 0x58, 0x9d, 0x3d, 0x85, 0x1d, 0x4a, 0xbe, 0xda, 0xd2, 0x52, 0xbe,
  0x3d, 0xd0, 0xa9, 0x3e, 0x52, 0xb9, 0xff, 0xbd, 0x80, 0xc4, 0xf5, 0xbc,
  0x19, 0x58, 0x39, 0x3e, 0xd0, 0x01, 0xcf, 0xbd, 0x15, 0xd2, 0xc9, 0x3c,
  0xd1, 0x09, 0xc2, 0x3e, 0xb1, 0x95, 0x17, 0xbe, 0x2a, 0x92, 0x27, 0xbd,
  0x6d, 0x4e, 0xf3, 0xbd, 0x25, 0x7f, 0x49, 0xbd, 0x7f, 0xd0, 0x8f, 0x3b,
  0x99, 0x4f, 0xa9, 0x3e, 0x79, 0x36, 0xde, 0x3d, 0x76, 0x13, 0x97, 0xbd,
  0x2f, 0x6a, 0xd3, 0xbd, 0xdf, 0x7d, 0x5f, 0x3e, 0x7d, 0x74, 0x2b, 0xbe,
  0xe8, 0xdb, 0x1f, 0xbe, 0xa1, 0x57, 0x94, 0x3d, 0x5f, 0xb9, 0xc4, 0x3d,
  0x6d, 0x6d, 0x4a, 0x3d, 0xec, 0xc1, 0x14, 0x3e, 0xee, 0xaf, 0xc6, 0xbc,
  0x92, 0x8f, 0x00, 0xbe, 0xae, 0x41, 0x17, 0xbe, 0x92, 0xf8, 0x13, 0x3c,
  0x9d, 0x3b, 0x1b, 0xbe, 0xd0, 0x98, 0x8b, 0x3e, 0x2f, 0x84, 0xb6, 0x3d,
  0xbe, 0xb2, 0x0a, 0xbe, 0x83, 0x46, 0x44, 0x3e, 0x27, 0x5f, 0xa8, 0xbd,
  0x86, 0x89, 0x03, 0x3b, 0x0f, 0xd6, 0x1d, 0x3e, 0x38, 0xc8, 0xcf, 0xbd,
  0xcb, 0x5a, 0xf9, 0x3d, 0x29, 0xe5, 0x99, 0x3e, 0x8b, 0xd2, 0x7c, 0x3e,
  0xfc, 0xa0, 0x09, 0x3b, 0x9c, 0x48, 0xdd, 0xbc, 0xef, 0x19, 0x26, 0xbe,
  0x9b, 0x9c, 0x43, 0xbe, 0x5e, 0x96, 0xf1, 0xbd, 0xf6, 0xb6, 0x86, 0x3e,
  0xa8, 0xa5, 0x87, 0x3d, 0x44, 0x23, 0xa5, 0xbb, 0x2a, 0xd5, 0xe3, 0x3c,
  0x6c, 0xb9, 0x42, 0x3e, 0x21, 0xc1, 0xeb, 0x3d, 0x16, 0x05, 0x9c, 0xbd,
  0x94, 0x5e, 0x1d, 0x3e, 0xe0, 0x76, 0xa1, 0x3d, 0x7f, 0xa9, 0x4d, 0x3e,
  0xbc, 0xa7, 0x1b, 0xbc, 0xa2, 0xcf, 0x1a, 0x3e, 0x36, 0xd4, 0x5d, 0x3d,
  0x1f, 0x4e, 0x82, 0xbd, 0xf0, 0xec, 0x15, 0xbe, 0x80, 0xef, 0x5b, 0x3e,
  0x24, 0x14, 0x97, 0x3e, 0x42, 0xb0, 0x7c, 0x3c, 0x4e, 0x92, 0x37, 0xbe,
  0x6c, 0xd4, 0x99, 0x3d, 0x36, 0x4e, 0xa4, 0x3e, 0x77, 0xda, 0x12, 0xbc,
  0x30, 0xdd, 0x50, 0xbe, 0x8c, 0x9f, 0x3e, 0x3d, 0x65, 0x7f, 0xbb, 0x3b,
  0x12, 0xb9, 0x06, 0x3d, 0x76, 0x6b, 0x01, 0x3e, 0xd5, 0x64, 0x4e, 0xbe,
  0xe8, 0x6d, 0x2d, 0xbe, 0xb4, 0x14, 0x30, 0xbe, 0x03, 0x08, 0x3a, 0xbd,
  0x9d, 0x75, 0x4d, 0xbe, 0x1f, 0xce, 0xc0, 0x3e, 0x1d, 0x2e, 0x1b, 0xbe,
  0x23, 0x3f, 0x78, 0x3d, 0x0b, 0x5d, 0xea, 0x3d, 0xff, 0x95, 0x03, 0x3f,
  0x08, 0xbd, 0xe8, 0x3d, 0x2f, 0x21, 0x18, 0xbe, 0x17, 0x07, 0x91, 0xbd,
  0x3e, 0x87, 0xa4, 0xbd, 0xb1, 0x73, 0x1f, 0x3e, 0xa8, 0x3f, 0x1f, 0x3e,
  0xca, 0x6d, 0x20, 0xbe, 0x4f, 0x19, 0x3e, 0x3d, 0xd6, 0xc4, 0x9f, 0xbb,
  0xf6, 0xb1, 0x05, 0xbe, 0x15, 0xf8, 0x1d, 0xbe, 0xf1, 0x70, 0x90, 0x3e,
  0x94, 0xaf, 0x1c, 0x3e, 0xad, 0x3b, 0x58, 0x3d, 0x8c, 0xdb, 0x53, 0x3d,
  0xa9, 0x09, 0x99, 0x3e, 0x84, 0xcc, 0x91, 0x3c, 0x59, 0xa7, 0x12, 0xbe,
  0x1e, 0x17, 0x1a, 0xbc, 0x86, 0xf2, 0x87, 0x3e, 0x51, 0x69, 0xdb, 0x3e,
  0xea, 0xd1, 0xaa, 0xbd, 0xaf, 0x2c, 0x39, 0xbe, 0x90, 0x0e, 0x01, 0xbe,
  0x14, 0x89, 0xc3, 0x3c, 0x1a, 0xb4, 0x69, 0x3d, 0x09, 0x1b, 0x88, 0x3e,
  0xa5, 0x61, 0x35, 0xbe, 0xef, 0x2f, 0xac, 0x3e, 0xed, 0x21, 0x2c, 0x3e,
  0xd0, 0x70, 0xf5, 0xbd, 0xed, 0xe0, 0xd2, 0xbe, 0x8b, 0xa5, 0x0a, 0x3f,
  0xc1, 0x2e, 0x77, 0x3e, 0x4e, 0x69, 0x0d, 0xbe, 0xa7, 0xbd, 0xb4, 0x3e,
  0xc6, 0x17, 0x73, 0xbe, 0xab, 0xfd, 0xb8, 0xbd, 0x67, 0xbf, 0xf5, 0xbd,
  0x3b, 0x89, 0x0d, 0xbe, 0x49, 0xd2, 0x78, 0xbd, 0xa3, 0x8a, 0x76, 0x3d,
  0xe1, 0x5d, 0xa0, 0xbc, 0x3c, 0x15, 0xcd, 0xbd, 0xd9, 0x0d, 0xa2, 0xbe,
  0x96, 0x88, 0xa0, 0x3e, 0x44, 0x9a, 0x49, 0xbe, 0x59, 0x45, 0xdf, 0x3b,
  0x13, 0x7e, 0x6b, 0xbe, 0x6c, 0xeb, 0x0b, 0xbe, 0xb9, 0x54, 0xdc, 0xbe,
  0x2b, 0xd2, 0xde, 0xbe, 0xb4, 0x47, 0x85, 0xbd, 0xed, 0x92, 0xb0, 0xbd,
  0x6e, 0xa8, 0xa4, 0xbe, 0x4d, 0x74, 0xc7, 0x3d, 0x16, 0x26, 0x65, 0xbd,
  0xd3, 0x42, 0xbd, 0xbc, 0x07, 0x3b, 0x73, 0xbd, 0x55, 0xb4, 0xa6, 0xbd,
  0xd3, 0x07, 0x18, 0xbe, 0x78, 0xc6, 0x56, 0xbd, 0x1f, 0x74, 0x37, 0xbd,
  0xd7, 0x73, 0x59, 0x3d, 0x22, 0x77, 0x93, 0x3d, 0x39, 0xe6, 0x3c, 0xbe,
  0xda, 0x12, 0x3d, 0xbf, 0x3f, 0x75, 0x08, 0xbf, 0xa5, 0xf9, 0x89, 0xbd,
  0xbe, 0x70, 0x5d, 0xbd, 0x29, 0x9d, 0x3d, 0xbe, 0x8d, 0xf4, 0xfc, 0xbd,
  0x50, 0x33, 0xf5, 0xbd, 0xfb, 0x3a, 0xcc, 0xbe, 0x0b, 0xc3, 0x6c, 0xbe,
  0x9e, 0x8e, 0xcf, 0x3b, 0x3b, 0xcf, 0x81, 0xbe, 0xa5, 0xf2, 0x82, 0xbe,
  0x64, 0x25, 0x56, 0xbe, 0x5d, 0x12, 0xcd, 0xbd, 0xb6, 0x22, 0x15, 0xbd,
  0x72, 0x56, 0x0b, 0xbe, 0x5b, 0xa3, 0x13, 0xbf, 0x41, 0x22, 0xbe, 0x3e,
  0x0d, 0x79, 0x3e, 0x3d, 0x56, 0x86, 0xdf, 0xbd, 0x29, 0xd0, 0x05, 0xbe,
  0xb7, 0xe9, 0xb7, 0xbd, 0x79, 0x89, 0xb7, 0xbd, 0x2a, 0x7d, 0x88, 0xbe,
  0xab, 0x1d, 0xa6, 0xbd, 0x82, 0xd1, 0x64, 0xbd, 0x30, 0x3c, 0xf6, 0x3e,
  0x24, 0xff, 0xec, 0x3e, 0x34, 0x2a, 0x26, 0xbe, 0xab, 0x23, 0x97, 0xbc,
  0x02, 0x0d, 0xf7, 0x3e, 0x85, 0xb7, 0xc4, 0x3e, 0x70, 0xa2, 0x06, 0x3e,
  0x2e, 0x02, 0xad, 0x3e, 0x57, 0x31, 0xfd, 0x3d, 0xa8, 0x30, 0x9c, 0xbd,
  0x2d, 0xf7, 0xdf, 0xbd, 0x2c, 0x88, 0x5c, 0x3a, 0x9f, 0xc1, 0x96, 0x3c,
  0xfa, 0xef, 0x2b, 0xbc, 0xf1, 0xfa, 0x0c, 0x3e, 0xc8, 0xe8, 0x3f, 0xbc,
  0x0e, 0xe5, 0xce, 0x3e, 0x5f, 0x67, 0xbc, 0x3e, 0x79, 0x7f, 0x68, 0xbd,
  0xa3, 0x42, 0x3a, 0xbe, 0xe5, 0x9d, 0x1a, 0x3e, 0x89, 0x4f, 0xe9, 0x3e,
  0x01, 0x71, 0x72, 0x3e, 0x04, 0x77, 0x3a, 0x3d, 0xbf, 0x5f, 0x3b, 0xbc,
  0xfa, 0x88, 0x0d, 0x3d, 0x40, 0x26, 0x11, 0x3c, 0xd9, 0xf0, 0x17, 0x3e,
  0xb5, 0xb9, 0x85, 0xbd, 0x03, 0x35, 0xa4, 0x3c, 0xe0, 0xd9, 0x65, 0x3c,
  0xb5, 0x7f, 0xbc, 0x3d, 0x3b, 0x5e, 0x31, 0xbe, 0x29, 0xf7, 0x97, 0x3e,
  0xe6, 0xc1, 0x18, 0xbd, 0x2d, 0xa6, 0x85, 0xbd, 0x13, 0xd5, 0x0f, 0xbc,
  0xdb, 0x9b, 0x4b, 0xbd, 0x3a, 0x29, 0x27, 0xbe, 0x2b, 0xa9, 0xb0, 0x3b,
  0x91, 0x6e, 0xd2, 0xbd, 0xce, 0x45, 0x7e, 0xbd, 0x7a, 0x41, 0x7d, 0x3d,
  0x53, 0x8f, 0xc1, 0x3c, 0x8b, 0x19, 0x7e, 0xbe, 0x86, 0xea, 0xad, 0xbd,
  0x0b, 0xb0, 0xce, 0xbd, 0x9d, 0xc0, 0x2c, 0x3e, 0x37, 0x6c, 0x71, 0xbe,
  0x28, 0x4e, 0x0c, 0xbe, 0x8e, 0x37, 0x40, 0xbe, 0xf9, 0x8d, 0x69, 0x3b,
  0x9f, 0xdb, 0x4d, 0xbc, 0x9a, 0xe7, 0x24, 0x3e, 0xcd, 0x23, 0x52, 0xbe,
  0x50, 0x8f, 0x45, 0xbe, 0x48, 0xe3, 0xd2, 0x3a, 0xc6, 0x6c, 0x3f, 0x3c,
  0xc5, 0x98, 0x90, 0xbe, 0x83, 0x38, 0x02, 0xbe, 0xa3, 0x68, 0x24, 0xbe,
  0x82, 0xeb, 0xcd, 0xbd, 0x03, 0xec, 0x3d, 0xbe, 0x0f, 0xd2, 0xf4, 0x3d,
  0x00, 0x1d, 0x09, 0x3d, 0xac, 0x63, 0x4c, 0x3c, 0xc5, 0x55, 0x80, 0x3d,
  0xf4, 0x77, 0x37, 0xbe, 0x10, 0x39, 0xd2, 0xbd, 0x86, 0x47, 0x40, 0x3d,
  0x32, 0x5d, 0x64, 0xbe, 0x96, 0x85, 0x60, 0xbe, 0xb3, 0x92, 0x1b, 0xbe,
  0x52, 0xe1, 0xbd, 0xbd, 0xff, 0xbe, 0x60, 0xbd, 0xa8, 0x63, 0x7d, 0xbe,
  0xf0, 0xbe, 0x9f, 0xbe, 0x0a, 0xa2, 0x8f, 0x3b, 0x73, 0xbf, 0x88, 0xb8,
  0x64, 0x46, 0x37, 0xbc, 0xbb, 0xdc, 0xb1, 0x3d, 0xd1, 0x34, 0xc8, 0x3d,
  0x32, 0xaa, 0xeb, 0xbd, 0x75, 0x0d, 0xf6, 0xbd, 0x01, 0xd5, 0x1d, 0x3e,
  0xb2, 0x68, 0xc7, 0xbd, 0x64, 0x42, 0x43, 0xbe, 0x38, 0xf4, 0x40, 0xbe,
  0xef, 0xd6, 0x7b, 0xbe, 0x13, 0x4d, 0x57, 0x3b, 0x5b, 0x4f, 0x03, 0xbd,
  0x22, 0xf1, 0x23, 0xbe, 0x13, 0x4f, 0x43, 0xbd, 0x1f, 0xf4, 0x0c, 0xbe,
  0x18, 0x81, 0x74, 0xbe, 0x01, 0x21, 0xc1, 0xbd, 0xe6, 0x1e, 0x59, 0xbe,
  0x3f, 0x89, 0xea, 0xbc, 0xdc, 0x0f, 0xf8, 0xbd, 0x50, 0xbc, 0x3a, 0x3c,
  0xaf, 0xa7, 0x3c, 0xbe, 0x9c, 0x53, 0x54, 0xbe, 0x0f, 0xc6, 0xd0, 0xbc,
  0x2c, 0x44, 0x10, 0xbe, 0xfb, 0x2b, 0xe1, 0xbd, 0x91, 0xb7, 0x0e, 0x3e,
  0xc4, 0xe8, 0x19, 0xbd, 0x2b, 0xab, 0x08, 0x39, 0x69, 0xc6, 0x62, 0xbe,
  0x45, 0x45, 0x2c, 0xbe, 0xbf, 0x7d, 0x99, 0xbd, 0xc2, 0x03, 0x8f, 0xbd,
  0xbf, 0xe1, 0xa1, 0xbb, 0x3c, 0x47, 0x44, 0xbe, 0xcf, 0x69, 0x95, 0xbe,
  0x50, 0x66, 0xb6, 0xbd, 0xc6, 0x6a, 0xe5, 0xbd, 0x8f, 0x49, 0x01, 0x3e,
  0x79, 0x73, 0x9b, 0xbd, 0x52, 0x5f, 0x81, 0xbe, 0xf5, 0x34, 0x3f, 0xbb,
  0x1c, 0xdb, 0x57, 0xbe, 0x48, 0x20, 0xab, 0x3d, 0x61, 0x66, 0xae, 0xbd,
  0xbe, 0xbb, 0xcf, 0xbd, 0x24, 0x87, 0x00, 0xbc, 0x16, 0x5d, 0xc3, 0xbd,
  0xad, 0x4b, 0xf9, 0x3d, 0xbd, 0x91, 0x41, 0x3d, 0x6d, 0x73, 0x4c, 0xbe,
  0x6e, 0x24, 0xfc, 0xbd, 0x0b, 0xaa, 0x59, 0xbe, 0x47, 0x83, 0xa2, 0xbc,
  0xb6, 0x14, 0xd3, 0xbd, 0x3a, 0xe8, 0xb7, 0x3d, 0x81, 0xab, 0x59, 0xbe,
  0xf6, 0x91, 0x32, 0xbd, 0x84, 0xf6, 0xac, 0x3d, 0xc9, 0x4b, 0xfd, 0x3c,
  0xf9, 0x55, 0xc0, 0xbc, 0x6c, 0x5b, 0xd0, 0xbc, 0xd3, 0xb4, 0x3c, 0x3d,
  0xe6, 0x24, 0x2f, 0xbe, 0x61, 0x21, 0x72, 0x3c, 0x31, 0xcd, 0x06, 0x3e,
  0xab, 0x30, 0x2e, 0xbe, 0x54, 0xdd, 0x71, 0xbe, 0x16, 0x95, 0x26, 0xbe,
  0x54, 0x55, 0x95, 0xbd, 0xc4, 0x88, 0x25, 0xbe, 0x02, 0x91, 0x4c, 0xbe,
  0x6b, 0x81, 0x04, 0xbe, 0x18, 0x06, 0x70, 0xbd, 0xe4, 0x53, 0x94, 0x3e,
  0x04, 0xdc, 0x69, 0xbe, 0xe4, 0x42, 0x8c, 0xbe, 0xfe, 0x29, 0xfe, 0xbe,
  0x25, 0x91, 0x20, 0xbe, 0x26, 0x99, 0x88, 0x3d, 0x21, 0x89, 0x1e, 0xbd,
  0x94, 0x7c, 0x58, 0x3c, 0x5a, 0x73, 0x10, 0xbe, 0x74, 0xac, 0xe4, 0xbc,
  0xbe, 0x24, 0xcf, 0xbd, 0xf7, 0x81, 0x29, 0x3e, 0x95, 0x56, 0x13, 0xbe,
  0xbe, 0xd7, 0x12, 0xbe, 0x62, 0xad, 0xab, 0xbd, 0xbc, 0x8b, 0x1b, 0x3e,
  0x38, 0x92, 0x7b, 0x3e, 0x2a, 0x42, 0xc7, 0x3d, 0xd7, 0xe0, 0x09, 0x3e,
  0x99, 0x00, 0x45, 0xbe, 0x89, 0xe7, 0xc9, 0xbd, 0xef, 0x94, 0xff, 0xbd,
  0xd0, 0xe7, 0xf6, 0xbd, 0x8b, 0x22, 0x2c, 0xbe, 0x62, 0xdd, 0x31, 0x3e,
  0x43, 0xf6, 0x45, 0xbd, 0x6b, 0x07, 0x16, 0xbe, 0xc0, 0x44, 0xa9, 0x3d,
  0x50, 0xbc, 0xac, 0xbd, 0xe8, 0x8a, 0x80, 0xbe, 0x7d, 0xa0, 0xcf, 0xbd,
  0x3a, 0xab, 0xc4, 0x3d, 0x12, 0x5c, 0xd6, 0xbc, 0xda, 0x4d, 0x1e, 0xbe,
  0xf1, 0x60, 0x05, 0x3d, 0x4a, 0x2e, 0x45, 0xbe, 0x22, 0x3a, 0x2d, 0x3d,
  0x57, 0xdf, 0x96, 0x3d, 0x3a, 0x25, 0x5e, 0x3d, 0x96, 0x39, 0x2c, 0xbe,
  0x02, 0x15, 0xc2, 0xbb, 0x1b, 0x48, 0x70, 0x3d, 0xd5, 0x44, 0x40, 0x3e,
  0xbe, 0xd1, 0x77, 0xbd, 0x0b, 0xdc, 0x1d, 0x3e, 0xa1, 0x51, 0xea, 0xbd,
  0x27, 0x54, 0x16, 0xbe, 0x7c, 0x74, 0x0a, 0x3e, 0x64, 0x4c, 0xa0, 0x3e,
  0x27, 0xcb, 0xe2, 0xbd, 0x4b, 0xc9, 0xe7, 0x3d, 0x55, 0x68, 0xa8, 0xbe,
  0x2d, 0x91, 0x9d, 0xbd, 0x44, 0xad, 0x1b, 0x3d, 0x83, 0xdc, 0x9a, 0xbd,
  0x2d, 0x25, 0x31, 0xbe, 0x73, 0xa0, 0x31, 0xbd, 0xb2, 0xbe, 0xb0, 0xbd,
  0x08, 0x83, 0x63, 0x3d, 0xfd, 0xa3, 0xf2, 0x3c, 0xb6, 0x7b, 0xfb, 0x3d,
  0xb0, 0x06, 0x98, 0x3c, 0x38, 0x30, 0x8e, 0xbd, 0xd1, 0x77, 0x0d, 0x3e,
  0xd4, 0xfa, 0x80, 0x3d, 0xbb, 0x8d, 0x8c, 0xbe, 0xb6, 0x5c, 0xaf, 0xbd,
  0x91, 0x1f, 0x3d, 0xbe, 0xe0, 0x08, 0x69, 0xbe, 0x28, 0x02, 0x8c, 0xbe,
  0x2e, 0x90, 0x72, 0x3e, 0x89, 0x02, 0x4a, 0xbe, 0x00, 0xe8, 0xbd, 0xbc,
  0x5e, 0x97, 0x22, 0xbe, 0xfa, 0xbb, 0xd3, 0xbd, 0x68, 0x62, 0xc1, 0xbc,
  0xb2, 0x65, 0x2a, 0xbe, 0xcc, 0xf4, 0x45, 0xbe, 0x07, 0xce, 0xfc, 0xbd,
  0x40, 0x17, 0x06, 0xbe, 0x1b, 0x6e, 0x64, 0x3e, 0xd6, 0xbe, 0x6b, 0xbd,
  0xa7, 0x93, 0x5a, 0xbe, 0xee, 0x88, 0x38, 0xbe, 0x22, 0xc1, 0x1d, 0xbe,
  0x6c, 0xdb, 0x7b, 0xbe, 0xc7, 0x26, 0x0b, 0xbe, 0x06, 0x70, 0x92, 0xbd,
  0x84, 0xf8, 0xa9, 0xbd, 0xbb, 0x06, 0x21, 0xbc, 0xc1, 0xb6, 0x0f, 0x3e,
  0xdf, 0xec, 0x23, 0x3e, 0xb0, 0xde, 0x2b, 0x3d, 0x00, 0x76, 0xc9, 0x3d,
  0x6f, 0x49, 0xf7, 0xbd, 0x74, 0xdf, 0x6a, 0xbd, 0x98, 0x94, 0xd2, 0xbd,
  0xdc, 0xdb, 0x07, 0xbd, 0x0f, 0xcf, 0x60, 0xbe, 0xdc, 0x81, 0x4b, 0xbe,
  0xa6, 0x76, 0x88, 0xbd, 0x1d, 0xc8, 0x3b, 0xbd, 0x70, 0x65, 0x34, 0xbe,
  0xc9, 0x2d, 0xc7, 0x3d, 0x4c, 0x6c, 0xb4, 0xbc, 0xaa, 0x0d, 0x49, 0xbe,
  0xa6, 0x3a, 0xfd, 0xbd, 0x3f, 0x04, 0x07, 0x3e, 0x70, 0x0f, 0xc0, 0xbd,
  0x9e, 0x31, 0xda, 0xbd, 0x65, 0x36, 0x2b, 0xbe, 0xee, 0x36, 0x9f, 0xbd,
  0x95, 0x53, 0xba, 0xbc, 0x87, 0xd9, 0xb1, 0xbd, 0x9c, 0xdc, 0x7c, 0xbd,
  0x33, 0x89, 0x86, 0xbe, 0xb2, 0x4f, 0x2a, 0xbd, 0x31, 0x23, 0xd0, 0xbd,
  0x11, 0xd7, 0x2f, 0x3e, 0xbc, 0x4e, 0xe1, 0x3d, 0x5d, 0x03, 0x06, 0xbe,
  0x3d, 0xfa, 0xa4, 0x3c, 0xfc, 0xbf, 0x62, 0xbd, 0x9d, 0x17, 0xd8, 0x3c,
  0xa9, 0x72, 0x54, 0xbd, 0x45, 0xc1, 0x46, 0x3d, 0xee, 0x3d, 0x1b, 0x3e,
  0xd0, 0xa5, 0xf8, 0xbd, 0x17, 0xe5, 0xa8, 0x3d, 0xbe, 0x46, 0x41, 0xbe,
  0x48, 0x88, 0xf9, 0x3d, 0x83, 0x7f, 0xb6, 0xbe, 0xa3, 0x4d, 0xbd, 0x3d,
  0xde, 0x98, 0x3b, 0xbe, 0x87, 0xce, 0xec, 0x3d, 0x98, 0x53, 0x51, 0xbe,
  0x46, 0x14, 0x93, 0xbc, 0x67, 0x2b, 0x6c, 0xbe, 0x51, 0x7c, 0x3e, 0xbe,
  0x6c, 0xee, 0x16, 0xbe, 0x62, 0x12, 0x5e, 0x3d, 0xbd, 0xca, 0x83, 0x3d,
  0x6f, 0x08, 0x2d, 0xbd, 0xcf, 0x30, 0x5b, 0xbe, 0x37, 0x67, 0xa6, 0xbc,
  0x0a, 0xd8, 0xc7, 0x3d, 0xbb, 0xfb, 0xcf, 0x3d, 0x2e, 0x4a, 0x9e, 0xbd,
  0xf4, 0x98, 0xa6, 0xbc, 0x83, 0x16, 0x17, 0x3e, 0xfc, 0xa2, 0xbf, 0x3d,
  0xd1, 0xe6, 0xb8, 0x3c, 0xa8, 0xaa, 0x57, 0xbd, 0x46, 0x01, 0x6f, 0x3d,
  0xdf, 0x02, 0x8a, 0x3d, 0x55, 0x43, 0x30, 0xbe, 0x88, 0xa8, 0xf6, 0x3d,
  0xc8, 0x5b, 0xa2, 0xbc, 0xac, 0xe1, 0x2f, 0x3e, 0x57, 0xb5, 0x0f, 0xbe,
  0x8c, 0x5e, 0x19, 0x3e, 0x55, 0xf7, 0xee, 0x3c, 0x7e, 0x16, 0x5d, 0xbe,
  0x27, 0x2b, 0x78, 0xbe, 0x8d, 0x7e, 0xf0, 0x3d, 0x5a, 0xba, 0xb4, 0xbd,
  0x4d, 0x4c, 0xf5, 0xbd, 0xf2, 0x35, 0x85, 0x3d, 0x51, 0x3d, 0x24, 0x3e,
  0x17, 0xa0, 0x9b, 0xbc, 0x68, 0x6a, 0x83, 0x3d, 0x25, 0xaa, 0xc7, 0xbd,
  0x83, 0x1e, 0x03, 0xbe, 0x76, 0x3d, 0xf9, 0x3c, 0x1f, 0x82, 0xf4, 0xbd,
  0x0f, 0x1f, 0x7e, 0x3d, 0x36, 0x64, 0xbf, 0xbd, 0xde, 0xfe, 0x07, 0xbe,
  0x7a, 0x08, 0x3e, 0x3c, 0xa7, 0x38, 0x93, 0xbe, 0x09, 0x25, 0x44, 0x3c,
  0x32, 0x95, 0x4b, 0xbe, 0x65, 0x54, 0xab, 0xbd, 0x68, 0x48, 0x1e, 0x3e,
  0xa7, 0xea, 0xdf, 0x3d, 0xc6, 0xa3, 0x52, 0xbe, 0xcc, 0xe3, 0x54, 0xbe,
  0x4f, 0xfc, 0x0a, 0x3d, 0x00, 0x5f, 0x03, 0x3e, 0x4b, 0x24, 0x2f, 0x3d,
  0x68, 0x54, 0x0a, 0xbe, 0x47, 0xa9, 0xc8, 0x3d, 0x5c, 0x08, 0x81, 0xbd,
  0x54, 0xf7, 0x88, 0xbd, 0x92, 0x29, 0x42, 0xbe, 0x64, 0xc7, 0x35, 0xbe,
  0xc1, 0x22, 0x87, 0x3d, 0x27, 0x31, 0x2d, 0xbc, 0xc9, 0x99, 0xe1, 0xbd,
  0x5e, 0xde, 0xa2, 0x3d, 0x27, 0xa7, 0xa6, 0x3d, 0x35, 0x6f, 0x53, 0xbe,
  0x9a, 0x00, 0x3d, 0xbe, 0x30, 0xb3, 0x4a, 0x3d, 0xc9, 0xec, 0xb0, 0xbc,
  0x9c, 0xdb, 0xb1, 0xbc, 0xdb, 0x29, 0x7b, 0x3a, 0x48, 0xe4, 0x12, 0xbd,
  0x35, 0x5e, 0xf8, 0xbc, 0x0a, 0x63, 0x93, 0xbe, 0x5f, 0xb4, 0x2a, 0xbe,
  0xad, 0x31, 0x8f, 0xbe, 0xc6, 0x5b, 0xec, 0xbd, 0x7e, 0x92, 0x89, 0xbc,
  0xbc, 0x7e, 0xdd, 0x3d, 0xf9, 0xc5, 0xcb, 0xbd, 0xc5, 0x50, 0xd2, 0xbd,
  0x5f, 0xf0, 0xac, 0xbc, 0x9b, 0x02, 0xc1, 0xbd, 0xb6, 0x12, 0xd3, 0xbd,
  0x8a, 0xd9, 0x45, 0xbe, 0xcf, 0x04, 0xdf, 0x3d, 0x99, 0xea, 0xf3, 0xbd,
  0x31, 0xa1, 0x8f, 0xbe, 0x68, 0x86, 0x9c, 0x3d, 0xae, 0xb3, 0xa1, 0xbd,
  0x61, 0x19, 0xdf, 0xbe, 0xe1, 0x33, 0xd3, 0xbd, 0x26, 0x75, 0xaa, 0xbe,
  0xb4, 0xab, 0x84, 0xbd, 0x1e, 0x04, 0x94, 0xbd, 0x6d, 0xcf, 0xf1, 0xbe,
  0x80, 0x0e, 0xd4, 0xbe, 0xcf, 0x7f, 0x4e, 0xbe, 0xc7, 0xfc, 0xa3, 0xbc,
  0x73, 0x11, 0x35, 0xbf, 0x7c, 0xdf, 0x88, 0xbe, 0xe7, 0x4b, 0xa2, 0xbe,
  0x2c, 0x65, 0x23, 0xbe, 0x8d, 0x1c, 0xd6, 0xbd, 0x93, 0xf8, 0xf5, 0xbe,
  0x5f, 0x35, 0x6a, 0xbd, 0x90, 0x97, 0xed, 0xbe, 0xc4, 0xdd, 0xa0, 0xbd,
  0xe0, 0x53, 0x9b, 0xbe, 0x89, 0x94, 0x92, 0xbd, 0xc6, 0xcf, 0xa5, 0xbc,
  0x32, 0x38, 0x61, 0xbd, 0x5a, 0xec, 0xd0, 0xbc, 0xee, 0xec, 0x86, 0xbd,
  0xd8, 0x27, 0xe4, 0xbe, 0xcf, 0x4c, 0x39, 0xbe, 0x5a, 0x45, 0x48, 0xbe,
  0xc9, 0x89, 0x7a, 0xbe, 0xb5, 0x5e, 0xe4, 0xbd, 0xc9, 0x7b, 0x29, 0xbe,
  0x2c, 0x5a, 0xdd, 0xbd, 0xfa, 0xb3, 0x81, 0xbe, 0x16, 0xb0, 0xdd, 0xbe,
  0x95, 0xcc, 0x59, 0xbd, 0x3d, 0x64, 0x6b, 0xbe, 0xb6, 0x3b, 0x24, 0x3d,
  0xc9, 0xde, 0xfb, 0xbd, 0x00, 0x1e, 0x92, 0xbe, 0x2c, 0x0c, 0x58, 0xbd,
  0x7e, 0x06, 0x83, 0x3a, 0x10, 0x8a, 0x56, 0xbe, 0x4b, 0xe8, 0x6b, 0xbe,
  0xc9, 0x33, 0x77, 0xbe, 0x5f, 0xc6, 0xb7, 0xbe, 0x20, 0xa2, 0xde, 0xbd,
  0xe6, 0xc1, 0x16, 0xbe, 0x75, 0x25, 0xec, 0xbd, 0x1b, 0xbc, 0x54, 0xbe,
  0xff, 0x33, 0xe6, 0xbe, 0x52, 0x9e, 0xb2, 0xbd, 0x77, 0x87, 0x85, 0xbe,
  0xac, 0xc0, 0xe8, 0xbd, 0xdd, 0x54, 0x71, 0xbd, 0x14, 0x6f, 0x54, 0xbe,
  0x35, 0x1c, 0x3a, 0xbe, 0x5b, 0x81, 0x0c, 0xbd, 0xe3, 0xa4, 0xe5, 0xbd,
  0x15, 0x23, 0xf6, 0x3c, 0xeb, 0x1c, 0xb1, 0xbe, 0x99, 0xa8, 0x50, 0xbf,
  0x95, 0xa5, 0x79, 0xbe, 0x1d, 0x52, 0x54, 0xbe, 0xdf, 0x88, 0x3b, 0xbe,
  0x9e, 0x3a, 0x21, 0xbe, 0xf4, 0xdb, 0x3c, 0xbe, 0x49, 0xa4, 0xb7, 0xbd,
  0x51, 0x29, 0x8b, 0xbe, 0x07, 0x3e, 0x20, 0xbe, 0x98, 0x72, 0xd3, 0xbd,
  0xd8, 0x10, 0x76, 0x3d, 0x12, 0xd4, 0x9e, 0x3d, 0x1f, 0x93, 0xc3, 0xbe,
  0x4d, 0x50, 0x06, 0xbe, 0x5e, 0x70, 0x51, 0x3d, 0xf8, 0xb9, 0x82, 0xbe,
  0xb0, 0xf8, 0xe4, 0x3d, 0xfe, 0xe3, 0xbb, 0x3e, 0x3a, 0x79, 0xa5, 0x3d,
  0xd7, 0x39, 0x84, 0xbe, 0xe5, 0xb3, 0xc1, 0xbc, 0x63, 0x72, 0x5f, 0xbe,
  0xf6, 0x2c, 0x9a, 0xbd, 0x0b, 0x5b, 0x9b, 0xbd, 0x5f, 0x7d, 0xda, 0xbd,
  0x39, 0x6a, 0x4a, 0xbe, 0x69, 0x28, 0xfd, 0x3e, 0xf7, 0x6b, 0x06, 0x3f,
  0xf0, 0x31, 0x7b, 0xbe, 0x31, 0x2e, 0x5d, 0xbe, 0xce, 0x42, 0x8c, 0x3e,
  0x47, 0xa8, 0xae, 0x3e, 0xc8, 0xc4, 0x05, 0x3e, 0x27, 0x6c, 0x79, 0xbd,
  0xe4, 0x77, 0x6f, 0xba, 0xa6, 0x8b, 0xb3, 0xbd, 0x3a, 0x6e, 0xb9, 0xbd,
  0xb1, 0x18, 0x84, 0x3d, 0x36, 0xae, 0x29, 0x3e, 0x9f, 0x37, 0x7a, 0x3d,
  0xee, 0x97, 0x10, 0x3e, 0xf6, 0xba, 0x09, 0x3d, 0x1c, 0x39, 0xb4, 0x3d,
  0x99, 0x49, 0x8a, 0x3c, 0x56, 0xda, 0xf5, 0xbd, 0x15, 0xaf, 0x93, 0xbe,
  0xc8, 0x6a, 0xcb, 0x3e, 0x3d, 0x1b, 0x82, 0x3e, 0x6a, 0xef, 0x96, 0x3e,
  0x40, 0x55, 0x59, 0xbd, 0xb4, 0x8b, 0xce, 0xbe, 0x1a, 0x98, 0x93, 0xbd,
  0x1a, 0x4d, 0xcc, 0x3d, 0x6e, 0xf8, 0xba, 0xbe, 0x2d, 0xf9, 0x48, 0xbe,
  0xf9, 0x0d, 0xa0, 0xbe, 0xe1, 0x69, 0x97, 0xbd, 0xc9, 0x21, 0xd9, 0xbd,
  0x4e, 0xb0, 0xbe, 0xbd, 0x8d, 0x1d, 0x94, 0xbd, 0x87, 0x6f, 0x59, 0xbe,
  0x0b, 0x59, 0xdb, 0x3d, 0x5d, 0x2f, 0x27, 0xbe, 0x13, 0x10, 0xaf, 0xbe,
  0x2b, 0xdd, 0x62, 0xbe, 0x6b, 0xdb, 0x93, 0xbd, 0x22, 0x97, 0x3b, 0xbe,
  0xb4, 0x71, 0x0d, 0x3e, 0x3e, 0xaa, 0x86, 0x3d, 0x08, 0xff, 0x66, 0xbe,
  0x74, 0x82, 0x0a, 0xbe, 0xc9, 0x97, 0x0a, 0xbd, 0x65, 0xe8, 0xc1, 0x3a,
  0x2a, 0xf5, 0x28, 0x3c, 0xdd, 0xf0, 0x5b, 0xbb, 0xf0, 0x7b, 0xb0, 0xbd,
  0xd0, 0xdc, 0x0f, 0xbe, 0xc6, 0xf8, 0x97, 0x3c, 0xf4, 0xf5, 0x73, 0x3d,
  0xe5, 0x1f, 0x96, 0xbd, 0xae, 0x63, 0xf8, 0xbd, 0x72, 0x28, 0x71, 0xbe,
  0x67, 0xe5, 0x3a, 0xbe, 0xd2, 0xed, 0x1e, 0xbe, 0x51, 0xa6, 0x1a, 0xbd,
  0xf1, 0xf0, 0xac, 0xbe, 0x9f, 0x0e, 0xd8, 0xbd, 0x4b, 0x5a, 0x11, 0xbe,
  0x19, 0x1d, 0xdc, 0x3c, 0x2f, 0x97, 0x5a, 0xbe, 0x24, 0xfb, 0xed, 0x3d,
  0xb6, 0x30, 0x05, 0xbe, 0xab, 0x10, 0x8c, 0xbc, 0xcf, 0xc1, 0x65, 0xbd,
  0xfd, 0x26, 0xe1, 0xbd, 0x5d, 0xf7, 0xd6, 0x3c, 0x39, 0x7d, 0xb3, 0xbe,
  0x78, 0xbc, 0x03, 0xbe, 0x96, 0xf0, 0xaa, 0xbe, 0xf9, 0x9d, 0x87, 0x3c,
  0x15, 0xdf, 0xeb, 0xbd, 0x98, 0x43, 0x98, 0xbe, 0x36, 0xd7, 0x29, 0xbe,
  0xaa, 0x65, 0x1d, 0xbe, 0x1e, 0xf6, 0xd2, 0xbd, 0x8b, 0xcb, 0x0a, 0x3d,
  0xbf, 0x82, 0x9d, 0xbe, 0xf0, 0x9f, 0xa0, 0xbe, 0x80, 0x73, 0x17, 0xbe,
  0x12, 0xf1, 0x1d, 0xbd, 0x47, 0x15, 0x4c, 0xbe, 0x6b, 0x58, 0xe4, 0xbd,
  0xc8, 0x2a, 0x0c, 0xbf, 0xd4, 0xa8, 0x88, 0x3d, 0x35, 0x4a, 0x80, 0xbd,
  0x05, 0xa4, 0x2e, 0xbe, 0xc5, 0xd6, 0xb1, 0x3d, 0x22, 0x09, 0xe2, 0xbd,
  0xb4, 0x1f, 0x52, 0xbe, 0x38, 0x02, 0x85, 0xbe, 0x2c, 0xd9, 0x15, 0xbe,
  0x50, 0xa9, 0x04, 0xbe, 0x96, 0x41, 0x4b, 0x3e, 0x1c, 0x27, 0x30, 0x3e,
  0x7e, 0xc6, 0x60, 0xbe, 0x9f, 0x0e, 0xea, 0xbd, 0xe2, 0x1a, 0x1c, 0x3e,
  0x11, 0x71, 0x7e, 0x3e, 0xd8, 0xfb, 0xc1, 0x3d, 0x07, 0xda, 0x96, 0x3e,
  0x64, 0x35, 0xc6, 0x3d, 0x6e, 0x67, 0xc2, 0x3d, 0x55, 0x33, 0x11, 0x3c,
  0xef, 0x40, 0xe8, 0xbd, 0x3e, 0x8c, 0x58, 0xbd, 0x38, 0x13, 0xc6, 0x3c,
  0x74, 0xa0, 0x08, 0x3d, 0x29, 0x26, 0x1f, 0xbe, 0x5a, 0x4f, 0xc9, 0x3e,
  0x64, 0xec, 0x18, 0x3e, 0x53, 0x43, 0x34, 0xbe, 0x6c, 0x38, 0xc5, 0xbd,
  0xeb, 0xfa, 0x77, 0x3d, 0x64, 0x50, 0x01, 0x3f, 0x76, 0xd4, 0xd0, 0x3d,
  0xd4, 0xea, 0x24, 0x3e, 0x8a, 0x91, 0x33, 0x3e, 0x77, 0xe1, 0xaa, 0x3d,
  0xb0, 0x60, 0x93, 0xbd, 0x17, 0x0c, 0xe6, 0x3d, 0x88, 0x14, 0x91, 0x3c,
  0x02, 0x29, 0x98, 0x3d, 0xb2, 0x3e, 0x22, 0x3c, 0x03, 0xec, 0x3e, 0xbd,
  0x49, 0x4d, 0xc8, 0x3e, 0x9f, 0x5b, 0x58, 0x3e, 0x9f, 0xc6, 0x0c, 0xbe,
  0x23, 0x41, 0x88, 0x3d, 0x3e, 0xc2, 0x89, 0x3e, 0xdc, 0x6c, 0x46, 0x3d,
  0xe3, 0x25, 0x6a, 0x3e, 0x8d, 0xf7, 0x55, 0xbe, 0x48, 0x66, 0x49, 0xbe,
  0x5a, 0xf5, 0x1e, 0x3e, 0xd5, 0x7e, 0xd5, 0xbe, 0x31, 0xcd, 0xb6, 0x3b,
  0x66, 0x81, 0x11, 0x3d, 0xae, 0x98, 0xcf, 0xbe, 0x02, 0x74, 0x26, 0xbd,
  0xa0, 0xa2, 0x77, 0x3e, 0x4d, 0xbb, 0x3a, 0xbf, 0xf7, 0x8b, 0x9e, 0xbe,
  0x42, 0x26, 0x25, 0xbf, 0x5f, 0x3f, 0xa6, 0x3e, 0x77, 0xfa, 0x31, 0xbf,
  0xf2, 0xae, 0x54, 0xbe, 0xde, 0xd9, 0xf4, 0xbd, 0xca, 0xa7, 0x21, 0x3e,
  0xd5, 0x9d, 0xad, 0x3d, 0x61, 0x84, 0xc0, 0x3d, 0x37, 0x99, 0x16, 0xbf,
  0xbc, 0x33, 0x67, 0x3d, 0xe6, 0xb9, 0x68, 0x3d, 0xe4, 0x87, 0x6f, 0xbd,
  0x3e, 0x3f, 0x43, 0x3e, 0x92, 0xe9, 0xd2, 0x3d, 0x1e, 0x00, 0xe3, 0x3e,
  0xc8, 0xf6, 0x91, 0xbd, 0xd5, 0x7b, 0x17, 0xbf, 0xd0, 0x88, 0xc1, 0x3e,
  0xc2, 0x1d, 0x99, 0x3e, 0x4e, 0xef, 0x8b, 0x3d, 0xdd, 0x44, 0x8d, 0x3f,
  0xbe, 0x59, 0x33, 0x3e, 0x6e, 0xe9, 0x3e, 0x3d, 0x02, 0xdd, 0x10, 0x3e,
  0x71, 0x9f, 0x07, 0x3b, 0xfb, 0xba, 0xe5, 0x3d, 0x6e, 0x7b, 0x6d, 0x3d,
  0x83, 0x90, 0x98, 0xbe, 0x88, 0xfb, 0xd4, 0x3d, 0xe2, 0x1f, 0x6a, 0x3e,
  0x1c, 0x67, 0x0a, 0x3f, 0x1f, 0x3d, 0x6c, 0x3e, 0xe8, 0xaa, 0x6c, 0xbe,
  0xf4, 0x0d, 0x19, 0x3f, 0xf1, 0x78, 0xb0, 0x3e, 0x4e, 0x39, 0xb9, 0xbd,
  0xf5, 0xd6, 0x9d, 0x3e, 0x3c, 0xea, 0x28, 0x3e, 0x1e, 0xd5, 0x6b, 0x3e,
  0x38, 0xf7, 0x3f, 0x3e, 0x32, 0x2f, 0x6d, 0xbe, 0x9c, 0x51, 0x1f, 0x3d,
  0xe1, 0xc7, 0x2e, 0x3d, 0x35, 0xeb, 0xa1, 0xbe, 0x1e, 0x68, 0x4b, 0x3e,
  0x02, 0x74, 0xc5, 0x3e, 0x68, 0x88, 0x83, 0x3e, 0xde, 0x12, 0x76, 0x3e,
  0x44, 0x31, 0x9d, 0xbe, 0x84, 0x26, 0x9a, 0x3e, 0xf0, 0xc4, 0xbc, 0x3e,
  0xd7, 0xc8, 0x59, 0x3c, 0x3e, 0xe4, 0xa6, 0x3e, 0x02, 0x23, 0xad, 0xbc,
  0x03, 0xba, 0xb1, 0x3e, 0x00, 0xd7, 0x8f, 0x3e, 0xaa, 0x6b, 0x7a, 0xbe,
  0x56, 0x84, 0x83, 0x3c, 0xc9, 0x11, 0x85, 0x3d, 0xb9, 0xd8, 0x41, 0xbe,
  0xcd, 0x29, 0x42, 0x3e, 0x48, 0x0a, 0x88, 0x3e, 0xde, 0x07, 0xcb, 0xbc,
  0xf7, 0xf3, 0x2d, 0xbe, 0x7f, 0x1c, 0xa5, 0xbe, 0x36, 0x64, 0xc7, 0x3e,
  0xeb, 0x6a, 0xaf, 0x3d, 0xc3, 0xb4, 0x64, 0xbe, 0xa1, 0x6a, 0x5f, 0x3e,
  0x97, 0x2e, 0x59, 0x3d, 0xe7, 0xe6, 0x28, 0xbe, 0x92, 0x43, 0x33, 0x3e,
  0x1a, 0x6c, 0x1f, 0xbe, 0xa6, 0x1f, 0x04, 0xbe, 0xdf, 0xf0, 0xa1, 0xba,
  0xa8, 0x9d, 0x79, 0xbe, 0xf3, 0x7e, 0xbe, 0x3d, 0xc8, 0xbd, 0xb2, 0x3e,
  0xf3, 0x2e, 0xdf, 0xbc, 0xe9, 0xd5, 0xbc, 0xbe, 0xe0, 0x8d, 0x0d, 0xbe,
  0x59, 0xd8, 0xfb, 0x3e, 0xcb, 0xcd, 0x8a, 0x3e, 0x20, 0x94, 0x33, 0xbe,
  0x59, 0x09, 0xc1, 0x3d, 0x8a, 0x75, 0x78, 0x3d, 0x61, 0xec, 0x0a, 0xbd,
  0x8b, 0xae, 0xb2, 0x3e, 0x99, 0x40, 0x13, 0xbd, 0x0e, 0x72, 0x36, 0x3d,
  0x59, 0x04, 0xa2, 0xbc, 0xea, 0xbb, 0x03, 0xbe, 0x1f, 0xbc, 0xa0, 0xbd,
  0x79, 0xcc, 0x60, 0x3e, 0x86, 0x13, 0x3f, 0xbb, 0x01, 0xdd, 0x33, 0xbd,
  0x44, 0x9b, 0x5c, 0xbd, 0x24, 0xe3, 0xab, 0x3e, 0xeb, 0x83, 0x94, 0xbe,
  0xdf, 0x0e, 0xaa, 0xbd, 0x85, 0x1f, 0x10, 0xbe, 0x4f, 0xc4, 0x14, 0x3f,
  0x18, 0xaa, 0x36, 0x3e, 0x91, 0x95, 0xc5, 0x3d, 0x6d, 0xce, 0x91, 0xbe,
  0x9f, 0x8c, 0x99, 0xbd, 0x42, 0x48, 0x0c, 0x3d, 0x31, 0x6d, 0x2c, 0xbe,
  0x3e, 0x73, 0x26, 0x3d, 0x9a, 0x53, 0x74, 0xbc, 0xf0, 0x44, 0x9d, 0x3e,
  0x96, 0xf1, 0xeb, 0x3e, 0x9e, 0xfc, 0xb3, 0xbe, 0x63, 0xb3, 0x0d, 0x3d,
  0x37, 0xb3, 0xa0, 0x3e, 0x31, 0x9d, 0x47, 0x3e, 0x21, 0x8d, 0x12, 0xbc,
  0xac, 0xc7, 0x54, 0x3e, 0x03, 0xfa, 0x78, 0xbd, 0x52, 0x5e, 0x20, 0x3d,
  0x7a, 0x86, 0x73, 0xbe, 0xe2, 0x6b, 0x5e, 0xbd, 0xef, 0x8e, 0x85, 0x3c,
  0x60, 0xaf, 0xca, 0xbc, 0x78, 0xb7, 0x30, 0x3d, 0xdb, 0x80, 0xfd, 0x3c,
  0x71, 0xad, 0x7b, 0xbe, 0x9a, 0x02, 0xdb, 0x3d, 0xd9, 0xd0, 0x9f, 0xbe,
  0x74, 0x7d, 0x8a, 0x3d, 0x4e, 0x0c, 0xe2, 0xbc, 0x8b, 0xa7, 0x4c, 0x3c,
  0xfa, 0xef, 0x8e, 0xbd, 0x19, 0x98, 0x95, 0x3d, 0xe9, 0x7c, 0xf1, 0xbd,
  0x15, 0x20, 0x54, 0xbc, 0xe2, 0xb8, 0x80, 0xbe, 0x8c, 0x80, 0xc9, 0xbd,
  0xbd, 0xeb, 0xbe, 0x3c, 0xad, 0x73, 0x9e, 0xbd, 0x62, 0x66, 0x6d, 0xbb,
  0x35, 0x1e, 0x36, 0x3e, 0x27, 0xcf, 0xbf, 0x3d, 0x74, 0xbd, 0x5c, 0xbd,
  0x5f, 0x2f, 0x60, 0xbe, 0x24, 0x9f, 0x2c, 0x3e, 0x21, 0xc2, 0xf8, 0xbc,
  0xec, 0x54, 0xd3, 0xbc, 0xc0, 0xc8, 0xdf, 0xbc, 0x98, 0x5a, 0xd7, 0xba,
  0x23, 0xb1, 0x80, 0x3d, 0x82, 0x6d, 0x73, 0xbc, 0xc0, 0xb9, 0xc5, 0xbd,
  0x66, 0x68, 0xbd, 0x3c, 0x55, 0x54, 0xed, 0x3c, 0x40, 0x23, 0x89, 0xbe,
  0x16, 0x86, 0x40, 0x3d, 0x95, 0x02, 0x43, 0x3e, 0x61, 0xed, 0x4b, 0x3d,
  0x60, 0xed, 0x37, 0xbe, 0xd8, 0x58, 0x58, 0xbd, 0x7a, 0x5a, 0xb0, 0x3d,
  0x78, 0x76, 0x46, 0x3e, 0x2c, 0x62, 0x48, 0xbd, 0xfd, 0xe2, 0x1f, 0x3c,
  0x6e, 0x7a, 0x38, 0x3e, 0xf3, 0x73, 0x1b, 0x3e, 0xea, 0xbd, 0x81, 0xbc,
  0x55, 0x7b, 0x66, 0xbe, 0xf5, 0x49, 0x4f, 0x3b, 0xa3, 0xd7, 0x09, 0x3d,
  0x5f, 0x61, 0xab, 0xbd, 0xce, 0x81, 0x18, 0x3c, 0x3f, 0x3e, 0x9e, 0x3d,
  0x11, 0x6f, 0x1d, 0x3f, 0x3a, 0x93, 0xb6, 0x3e, 0x4d, 0x4c, 0x8e, 0xbe,
  0x56, 0x27, 0xdc, 0x3d, 0xde, 0x9a, 0x17, 0x3f, 0x38, 0x13, 0x9b, 0x3e,
  0xaa, 0x2b, 0x71, 0x3d, 0xae, 0x2d, 0x04, 0x3f, 0xf3, 0xa4, 0xd6, 0xbd,
  0x03, 0x88, 0x2d, 0x3d, 0x1d, 0xe0, 0xb7, 0xbd, 0x88, 0xd2, 0xc8, 0xbd,
  0x98, 0xd8, 0xef, 0x3c, 0x42, 0xcf, 0xc5, 0xbd, 0xb2, 0xa1, 0x78, 0x3c,
  0xad, 0x83, 0xcf, 0x3d, 0x0e, 0x77, 0x08, 0x3f, 0xbc, 0x91, 0xaf, 0x3e,
  0x2f, 0x7d, 0x29, 0xbe, 0xc7, 0x2e, 0x3a, 0x3e, 0xb2, 0xe6, 0x3a, 0x3e,
  0x1b, 0xee, 0x7a, 0x3e, 0xcd, 0x7b, 0x0a, 0xbd, 0x89, 0x22, 0x7a, 0x3c,
  0xbc, 0xdd, 0x3f, 0x3d, 0x14, 0x92, 0x1f, 0x3e, 0x12, 0x57, 0x3f, 0xbd,
  0x09, 0x86, 0x31, 0x3c, 0x89, 0xd3, 0xe0, 0x3b, 0x21, 0x31, 0x6e, 0xbd,
  0x64, 0xcf, 0x4a, 0xbc, 0x3f, 0x42, 0xfa, 0x3d, 0xc5, 0x7e, 0x54, 0x3e,
  0x6e, 0x4d, 0x14, 0x3e, 0x7b, 0xcf, 0x27, 0xbd, 0xd4, 0x0f, 0xb2, 0x3d,
  0x28, 0xac, 0x5e, 0x3e, 0x1e, 0xc0, 0xd6, 0x3c, 0xda, 0x50, 0xdf, 0x3d,
  0x51, 0x3d, 0x3b, 0xbe, 0x63, 0x5c, 0xe5, 0xbc, 0x69, 0xc2, 0x3c, 0xbd,
  0x5b, 0xd4, 0x12, 0xbe, 0x2c, 0x74, 0x27, 0xbc, 0x17, 0xd8, 0x14, 0xbd,
  0x8b, 0xe4, 0x0f, 0xbb, 0xb5, 0x47, 0x67, 0x3d, 0xcf, 0x43, 0x9c, 0x3e,
  0xc9, 0x37, 0x55, 0x3e, 0x8e, 0x98, 0x09, 0xbc, 0x83, 0x9c, 0x2e, 0x3c,
  0x60, 0x7c, 0x8c, 0x3e, 0xf2, 0xea, 0x1f, 0xbe, 0x6b, 0x49, 0x11, 0xbe,
  0x29, 0xb2, 0xae, 0x3d, 0x5d, 0x5b, 0xf6, 0x3d, 0x0a, 0x39, 0x43, 0xbe,
  0x37, 0x9c, 0x27, 0x3c, 0x38, 0x1a, 0xa0, 0x3c, 0x4a, 0xed, 0x57, 0xbe,
  0x85, 0xf3, 0x89, 0xbe, 0xbb, 0xad, 0x3b, 0xbe, 0x95, 0x64, 0x31, 0x3e,
  0x30, 0x8c, 0x43, 0x3e, 0xa2, 0x39, 0x17, 0x3e, 0x15, 0x32, 0x78, 0x3e,
  0xb4, 0x2d, 0xab, 0xbd, 0xa8, 0x88, 0x36, 0x3e, 0x5f, 0x6d, 0x47, 0x3e,
  0x5d, 0x98, 0x09, 0xbe, 0x22, 0xa0, 0xd7, 0x3e, 0x2c, 0xf9, 0x62, 0x3e,
  0x2f, 0x36, 0x1e, 0x3e, 0x31, 0x15, 0x42, 0xbe, 0x2f, 0x89, 0xe4, 0xbd,
  0xd0, 0xd5, 0x6b, 0xbe, 0xc9, 0xda, 0xd5, 0xbe, 0x6e, 0xf5, 0x52, 0xbb,
  0xba, 0xd6, 0x57, 0x3e, 0x2c, 0xe3, 0xa2, 0x3d, 0x25, 0xbe, 0x63, 0x3e,
  0x3e, 0x6b, 0x30, 0xbe, 0x3d, 0x51, 0xaf, 0xbd, 0x18, 0xf5, 0x99, 0x3e,
  0xe2, 0xc7, 0x14, 0xbd, 0xff, 0xd8, 0x04, 0x3d, 0x92, 0x7b, 0x66, 0x3e,
  0xd1, 0x49, 0xb2, 0x3d, 0x90, 0x49, 0x1a, 0x3c, 0xdc, 0x8a, 0x72, 0x3d,
  0x30, 0xc3, 0x28, 0xbd, 0x4e, 0x21, 0x8d, 0xbe, 0xdb, 0x16, 0x31, 0xbe,
  0x8a, 0x34, 0x4a, 0xbd, 0x71, 0x90, 0x39, 0x3e, 0x2b, 0x61, 0x9c, 0x3c,
  0x55, 0xfe, 0x8d, 0x3c, 0x9c, 0x66, 0x26, 0x3e, 0x89, 0xfa, 0xd1, 0x3c,
  0xfe, 0x5c, 0xd3, 0x3e, 0x13, 0x2f, 0x5d, 0xbe, 0x93, 0x18, 0x3e, 0xbe,
  0x71, 0x10, 0xa2, 0x3c, 0x68, 0xa2, 0x94, 0xbd, 0x67, 0x0b, 0x15, 0xbe,
  0x97, 0xac, 0xf2, 0xbd, 0x78, 0x51, 0x14, 0xbe, 0x0a, 0x4b, 0x73, 0xbd,
  0x12, 0x54, 0xdc, 0xbe, 0x3b, 0xe2, 0x18, 0x3d, 0x84, 0x7a, 0x2c, 0xbe,
  0x09, 0x9b, 0x99, 0xbb, 0x0e, 0x9e, 0x40, 0xbe, 0xcb, 0x55, 0xf3, 0xbd,
  0x73, 0x45, 0x07, 0xbd, 0xa4, 0xfd, 0xea, 0xbc, 0x49, 0xf2, 0x03, 0x3d,
  0x01, 0x7d, 0xcd, 0x3d, 0x04, 0xfb, 0xad, 0x3e, 0xaa, 0xb3, 0x44, 0x3e,
  0x38, 0x21, 0x4b, 0xbe, 0xfc, 0xfc, 0x57, 0x3e, 0xc5, 0x67, 0x98, 0x3d,
  0x9d, 0x70, 0x26, 0xbe, 0x3c, 0x0b, 0x2e, 0xbe, 0x6b, 0x56, 0x33, 0xbe,
  0x73, 0x80, 0x47, 0x3d, 0xdf, 0x95, 0x35, 0x3e, 0xb7, 0x92, 0x8c, 0x3c,
  0x41, 0x29, 0x9a, 0x3d, 0x5c, 0xa6, 0x94, 0xbd, 0xf7, 0x70, 0x2c, 0x3e,
  0x4c, 0xdd, 0xcd, 0xbd, 0x0e, 0x83, 0x65, 0x3d, 0x9f, 0x8f, 0x8b, 0x3b,
  0x5c, 0x03, 0x06, 0xbd, 0x7b, 0x7f, 0xfc, 0xbb, 0xb7, 0x69, 0xb6, 0xbd,
  0x63, 0x57, 0xef, 0xbd, 0x78, 0x3f, 0x42, 0xbe, 0xa2, 0xb9, 0x64, 0xbe,
  0x4d, 0xc2, 0x1a, 0xbc, 0x7d, 0xcb, 0xbe, 0x3c, 0xc2, 0x95, 0x6e, 0x3d,
  0xda, 0x2c, 0x14, 0x3c, 0xec, 0x65, 0x14, 0xbd, 0x2c, 0xdb, 0xaa, 0xbc,
  0xde, 0x54, 0x09, 0xbe, 0x4b, 0x53, 0x0a, 0xbd, 0xa1, 0x25, 0xe5, 0x3d,
  0x48, 0x90, 0x98, 0x3d, 0x3d, 0x12, 0x9b, 0xbd, 0x95, 0x83, 0x16, 0xbe,
  0xc4, 0x51, 0x44, 0xbe, 0x8a, 0xb5, 0x3c, 0xbe, 0x6c, 0xf4, 0xbe, 0xbd,
  0xa0, 0x22, 0x00, 0xbe, 0xf9, 0x24, 0x3b, 0xbe, 0x88, 0x5f, 0x23, 0x3c,
  0x43, 0x32, 0x18, 0xbe, 0x8f, 0x3c, 0x8e, 0x3d, 0xec, 0x0a, 0xcf, 0xbd,
  0xa3, 0x4f, 0x7f, 0x3d, 0xe6, 0x5a, 0x03, 0x3e, 0x2f, 0xd3, 0xa5, 0x3d,
  0xff, 0xc0, 0x00, 0xbd, 0x6f, 0xd1, 0x9e, 0xbe, 0x44, 0x2b, 0x26, 0xbe,
  0xab, 0x18, 0x6d, 0x3d, 0x62, 0x1f, 0x17, 0x3e, 0x5a, 0x33, 0xa0, 0xbd,
  0x18, 0xec, 0x4a, 0xbd, 0x4f, 0x42, 0xf6, 0xbd, 0x4c, 0x19, 0x67, 0xbe,
  0xf5, 0x3d, 0x10, 0xbe, 0xfa, 0x90, 0x0f, 0x3e, 0x96, 0xe2, 0x47, 0x3e,
  0xab, 0xe6, 0x07, 0xbe, 0x3d, 0x12, 0x00, 0x3e, 0x0d, 0xa7, 0xbc, 0xbc,
  0xaf, 0xf8, 0x05, 0xbe, 0x8f, 0xc5, 0x9c, 0xbd, 0x79, 0xda, 0xf2, 0x3d,
  0x6f, 0x5e, 0xa4, 0xbc, 0x1a, 0xaf, 0x58, 0xbe, 0x49, 0x52, 0x1f, 0x3e,
  0xbd, 0x8e, 0x29, 0xbe, 0x75, 0x47, 0x6c, 0xbe, 0xbc, 0x16, 0xa2, 0xbe,
  0x50, 0x8b, 0x0b, 0xbe, 0x77, 0x64, 0x8e, 0xbd, 0x6e, 0x11, 0x71, 0xbd,
  0x00, 0xa3, 0x32, 0xbe, 0x8c, 0xd7, 0xb7, 0x3d, 0x56, 0xfe, 0x79, 0xbe,
  0x1b, 0x56, 0x2c, 0xbe, 0x94, 0x71, 0x4f, 0xbe, 0xd6, 0x1b, 0x19, 0x3e,
  0x3e, 0x22, 0xb9, 0x3d, 0x35, 0x79, 0xd4, 0xbd, 0xd3, 0x28, 0x84, 0xbd,
  0xf1, 0xae, 0xe8, 0xbd, 0x46, 0x6b, 0x8f, 0x3d, 0xd8, 0x5d, 0xc0, 0x3c,
  0xd9, 0xb9, 0xee, 0xbd, 0x30, 0x59, 0x17, 0x3c, 0x86, 0xea, 0x1c, 0xbe,
  0x89, 0xbe, 0x3b, 0x3c, 0xcc, 0xe7, 0x99, 0x3d, 0x1f, 0x08, 0xa8, 0x3d,
  0xa5, 0x3b, 0x13, 0xbc, 0x2f, 0x08, 0x06, 0x3e, 0xe6, 0x20, 0x4e, 0xbd,
  0x30, 0x62, 0xb4, 0x3c, 0x19, 0x84, 0x3a, 0xbe, 0x37, 0xc0, 0xa7, 0x3d,
  0xdd, 0x1e, 0x22, 0xbe, 0xad, 0xb5, 0x17, 0xbe, 0xdc, 0x91, 0xeb, 0x3c,
  0xe1, 0x9d, 0xb5, 0xbe, 0xf6, 0x99, 0xab, 0xbe, 0x93, 0x98, 0xd0, 0x3c,
  0xde, 0x2e, 0x41, 0xbe, 0x6f, 0xcd, 0x66, 0xbc, 0x12, 0x72, 0x28, 0xbe,
  0xde, 0x13, 0x0f, 0xbd, 0xa0, 0x02, 0x04, 0xbe, 0xe0, 0xa2, 0x12, 0x3e,
  0x50, 0xdc, 0xdc, 0xbc, 0x85, 0x4c, 0x86, 0x3d, 0xde, 0xf3, 0x1f, 0x3c,
  0x34, 0x88, 0x57, 0x3c, 0x2d, 0x65, 0xa3, 0xbd, 0xd2, 0x73, 0x7e, 0xbd,
  0xe6, 0x1d, 0x94, 0xbd, 0x3b, 0xad, 0x54, 0xbd, 0x12, 0xb4, 0x73, 0xbe,
  0x63, 0x42, 0xfd, 0xbd, 0xec, 0x2d, 0x95, 0xbe, 0x17, 0x05, 0xbc, 0x3d,
  0x7a, 0xad, 0xd3, 0xbd, 0x2c, 0x35, 0xaa, 0x3d, 0xa0, 0x44, 0x15, 0xbe,
  0x37, 0xc8, 0x60, 0x3b, 0x33, 0x49, 0x07, 0xbe, 0x48, 0x5c, 0x27, 0xbe,
  0xe9, 0x23, 0x5a, 0xbe, 0xc3, 0xe4, 0x34, 0xbd, 0x9c, 0x44, 0x48, 0xbe,
  0x41, 0x6e, 0x0d, 0xbe, 0xa0, 0x0d, 0xa7, 0xbe, 0x95, 0x20, 0x68, 0xbe,
  0x73, 0xc6, 0x0a, 0xbe, 0x26, 0x82, 0x8a, 0x3d, 0x96, 0x34, 0x1f, 0xbe,
  0xa8, 0x10, 0x0d, 0xbe, 0x83, 0xf5, 0x4e, 0x3d, 0xe7, 0x94, 0x2d, 0x3e,
  0xd2, 0x09, 0x84, 0xbe, 0xfc, 0xaf, 0xa4, 0x3b, 0x49, 0xad, 0xaa, 0x3d,
  0xc8, 0x18, 0xbd, 0xbd, 0x5d, 0xaa, 0x9f, 0x3d, 0xd3, 0x8e, 0x9a, 0xbd,
  0x8a, 0xee, 0x75, 0xbc, 0x23, 0x02, 0xab, 0x3e, 0xd6, 0x0a, 0xba, 0xbd,
  0xc0, 0x69, 0x11, 0xbd, 0xc1, 0x63, 0xb6, 0xbc, 0xb9, 0x00, 0x16, 0xbe,
  0xfd, 0xdf, 0x1b, 0x3b, 0x50, 0x66, 0x2f, 0x3f, 0x56, 0x30, 0x71, 0xbd,
  0x6b, 0xc7, 0x68, 0x3c, 0xd1, 0x75, 0x02, 0xbe, 0xe7, 0xe6, 0xf0, 0x3e,
  0xc4, 0xfc, 0xba, 0xbe, 0x31, 0x0d, 0x64, 0x3b, 0x8b, 0xb4, 0xef, 0x3d,
  0x3e, 0xc9, 0xd1, 0x3d, 0x5d, 0xda, 0xab, 0x3d, 0xec, 0xfd, 0xfa, 0xbc,
  0x9e, 0xd7, 0x4a, 0xbe, 0x46, 0xde, 0x2d, 0xbe, 0x00, 0x6b, 0xad, 0x3d,
  0x2b, 0xf7, 0x04, 0xbe, 0x54, 0xc0, 0x11, 0x3e, 0x5d, 0xce, 0x43, 0x3e,
  0xdf, 0xfd, 0xb5, 0x3d, 0x4e, 0x0c, 0x57, 0x3e, 0x4a, 0xae, 0x8a, 0xbd,
  0x89, 0x74, 0x1b, 0x3f, 0x02, 0xbb, 0xe6, 0x3d, 0x23, 0xa7, 0xd3, 0x3d,
  0x9c, 0x31, 0x0b, 0x3f, 0xbd, 0x97, 0x35, 0xbe, 0x72, 0x76, 0x91, 0xbc,
  0xc9, 0x8d, 0xc3, 0x3d, 0x19, 0x48, 0x05, 0xbd, 0x6c, 0x28, 0x34, 0x3d,
  0x02, 0x8d, 0xe6, 0x3c, 0x4c, 0x34, 0xa8, 0xbd, 0x0c, 0xd0, 0x6a, 0x3e,
  0x34, 0x4d, 0x34, 0x3e, 0x23, 0xac, 0x52, 0x3b, 0x54, 0xbb, 0x8e, 0x3e,
  0x29, 0xfa, 0x1b, 0x3e, 0x8a, 0xda, 0xf9, 0x3e, 0xc0, 0x63, 0x0c, 0xbe,
  0x21, 0x95, 0x08, 0x3e, 0xa2, 0x47, 0xc8, 0x3e, 0xb4, 0x05, 0x2d, 0xbd,
  0x16, 0x2e, 0x93, 0x3d, 0xfc, 0x54, 0xe3, 0x3d, 0x99, 0x23, 0xee, 0xbd,
  0x13, 0xbc, 0xc1, 0xbc, 0x67, 0xf4, 0xa8, 0xbd, 0xb9, 0x1e, 0x31, 0xbd,
  0xc4, 0x09, 0x34, 0x3e, 0xc9, 0x35, 0xd6, 0x3e, 0xb3, 0x65, 0x9b, 0x3d,
  0x05, 0x45, 0x81, 0x3e, 0x88, 0xe7, 0x8e, 0xbd, 0x96, 0x42, 0x0d, 0x3f,
  0x6f, 0x83, 0xd5, 0x3d, 0xf9, 0x25, 0x5d, 0x3d, 0xb8, 0xc2, 0x1c, 0x3f,
  0x06, 0x66, 0x62, 0xbe, 0xe2, 0xf2, 0x9c, 0xbd, 0x41, 0x1a, 0x60, 0x3c,
  0x1b, 0x40, 0x55, 0xbe, 0x6f, 0xb7, 0x1b, 0xbe, 0xe1, 0x04, 0xe5, 0xbd,
  0x12, 0xd9, 0x43, 0xbe, 0xe0, 0xc0, 0x22, 0x3e, 0x97, 0x51, 0x09, 0x3f,
  0xa5, 0xac, 0x0c, 0xbe, 0x23, 0xa3, 0xc8, 0x3d, 0x50, 0xfb, 0x15, 0xbe,
  0x6f, 0xf5, 0xa4, 0x3e, 0x49, 0x26, 0x36, 0x3e, 0x16, 0x36, 0x10, 0x3c,
  0xc6, 0x51, 0x3d, 0x3e, 0x86, 0xe3, 0x8f, 0xbd, 0x8e, 0x6b, 0x57, 0xbd,
  0x3f, 0x49, 0x9a, 0x3d, 0xc7, 0x94, 0x43, 0xbe, 0xc1, 0x70, 0xde, 0xbe,
  0xd7, 0x0f, 0x8f, 0xbd, 0xea, 0x9c, 0x6a, 0xbd, 0x53, 0xc8, 0x76, 0x3e,
  0x4c, 0x20, 0x27, 0x3f, 0x40, 0x72, 0x03, 0xbe, 0x69, 0xa6, 0x60, 0x3c,
  0x11, 0x18, 0x1a, 0xbe, 0x37, 0x05, 0xa1, 0x3e, 0xc0, 0x69, 0x0d, 0xbe,
  0xd1, 0x4c, 0x34, 0xbe, 0xf8, 0xc6, 0x34, 0x3e, 0x70, 0x31, 0x84, 0xba,
  0xa0, 0x77, 0x78, 0xbd, 0xec, 0xb0, 0xe2, 0xbd, 0x45, 0x1f, 0x8e, 0xbe,
  0x6a, 0x81, 0xc7, 0xbe, 0xbd, 0xf5, 0xb6, 0xbd, 0x1e, 0x92, 0xd4, 0xba,
  0x33, 0x58, 0xc4, 0xbb, 0xa0, 0xf6, 0x81, 0x3e, 0x8e, 0x75, 0xca, 0xbd,
  0xd3, 0x6d, 0xa4, 0xbd, 0xfc, 0xe7, 0x8e, 0xbe, 0x54, 0xe9, 0xca, 0x3e,
  0xf6, 0x73, 0xed, 0xbd, 0xa5, 0xc1, 0xf7, 0xbd, 0x75, 0x34, 0xc2, 0x3b,
  0x0c, 0x27, 0x36, 0xbe, 0x15, 0x7e, 0x2f, 0xbe, 0xf6, 0xea, 0xc7, 0xbd,
  0x70, 0xd1, 0x38, 0x3d, 0x30, 0xad, 0x25, 0xbd, 0x11, 0x86, 0xa8, 0xbd,
  0xdf, 0xfe, 0x90, 0xbe, 0x4b, 0xf7, 0x1b, 0xbe, 0xfa, 0x08, 0x50, 0xbe,
  0x53, 0x40, 0x35, 0x3e, 0xaf, 0x81, 0xf5, 0xbd, 0x77, 0xc4, 0x8c, 0xbe,
  0x28, 0x51, 0x0a, 0xbe, 0x4a, 0xef, 0x4c, 0x3d, 0xbb, 0x2a, 0x77, 0xbe,
  0x97, 0x24, 0x20, 0x3d, 0xc1, 0x35, 0x39, 0xbe, 0x7c, 0xf6, 0x75, 0xbd,
  0x56, 0xa9, 0xfd, 0x3d, 0x7f, 0xeb, 0x6c, 0x3d, 0xa6, 0x5c, 0x06, 0xbd,
  0xbd, 0xbe, 0x93, 0xbd, 0xa5, 0x7c, 0xfd, 0xbd, 0x4b, 0x97, 0x0c, 0xbe,
  0xea, 0x56, 0x14, 0xbe, 0xdb, 0x87, 0x25, 0x3e, 0x0a, 0x24, 0x4a, 0xbe,
  0xf2, 0x90, 0x8d, 0xbc, 0xeb, 0xd5, 0x16, 0x3d, 0x08, 0xb3, 0xa6, 0x3d,
  0xa0, 0x88, 0xf4, 0xbd, 0x8a, 0x3b, 0x1f, 0x3c, 0x18, 0x4d, 0x63, 0xbe,
  0x9d, 0x8b, 0x7f, 0x3c, 0x4d, 0xe6, 0xdd, 0x3d, 0x5f, 0x18, 0xec, 0x3d,
  0x23, 0x1f, 0x72, 0x3d, 0x09, 0x66, 0xb9, 0xbe, 0x1f, 0xb1, 0x92, 0x3d,
  0x7e, 0xd4, 0x4e, 0xbe, 0x1b, 0xb5, 0x83, 0x3d, 0xa9, 0xd9, 0x39, 0xbe,
  0xba, 0xbb, 0x35, 0x3e, 0xed, 0x22, 0x4b, 0xbe, 0xb2, 0xed, 0xda, 0x3c,
  0xe3, 0x25, 0x81, 0xbd, 0xc7, 0xc1, 0x40, 0xbe, 0x68, 0xc7, 0x24, 0x3e,
  0x6e, 0xdc, 0x8e, 0xbd, 0xde, 0x1e, 0x2d, 0xbb, 0x8a, 0x7b, 0x93, 0xbd,
  0xd9, 0xa5, 0x84, 0xbd, 0x9e, 0x9a, 0x73, 0xbe, 0xb2, 0x8d, 0xf1, 0xbd,
  0x80, 0x5d, 0xde, 0x3c, 0x4b, 0xfc, 0x4c, 0xbe, 0x4c, 0x0a, 0xe9, 0xbd,
  0x2d, 0x3f, 0xfa, 0x3d, 0xdd, 0xd1, 0xe5, 0x3d, 0xe4, 0xbe, 0xfb, 0xbd,
  0xbc, 0xcc, 0xbc, 0xbd, 0x95, 0x3f, 0xf3, 0xbc, 0xf7, 0x48, 0x11, 0xbe,
  0x3c, 0x50, 0x3d, 0xbe, 0x05, 0x31, 0x8e, 0xbd, 0x0f, 0x8b, 0x88, 0x3d,
  0xe9, 0xef, 0x58, 0x3d, 0x33, 0x7b, 0x65, 0x3b, 0xda, 0xdf, 0x0b, 0x3d,
  0x28, 0x73, 0x9c, 0xbe, 0xfb, 0xc7, 0x27, 0x3d, 0xc1, 0xc4, 0xed, 0x3c,
  0x9e, 0xc0, 0x23, 0x3c, 0x19, 0x00, 0x10, 0xbe, 0x61, 0x75, 0x72, 0xbe,
  0x58, 0x38, 0x09, 0xbe, 0xcd, 0x02, 0x45, 0x3d, 0x23, 0x69, 0x70, 0x3d,
  0xa2, 0x04, 0x39, 0xbe, 0xa6, 0x61, 0x20, 0xbc, 0x50, 0xce, 0xfa, 0x3d,
  0x9f, 0xca, 0x70, 0xbe, 0xd8, 0x3a, 0x9e, 0xbd, 0xae, 0x92, 0x8d, 0xbd,
  0xa3, 0x06, 0x6b, 0x3d, 0x63, 0x03, 0xa8, 0xbd, 0xbc, 0xaf, 0x38, 0xbd,
  0x0a, 0x39, 0x87, 0xbd, 0x08, 0x8b, 0x18, 0x3e, 0x36, 0xec, 0x6d, 0x3d,
  0x24, 0x4b, 0x4d, 0xbe, 0x8f, 0x2a, 0x1e, 0xbc, 0x3d, 0xd5, 0xed, 0x3d,
  0x33, 0xee, 0x4b, 0xbe, 0xb1, 0xbf, 0x54, 0xbe, 0xf9, 0x0f, 0x5c, 0x3d,
  0x0d, 0x3b, 0x92, 0xbd, 0x4a, 0x9a, 0xc2, 0x3c, 0x77, 0x06, 0x37, 0x3e,
  0x67, 0xe7, 0xc6, 0xbd, 0xfa, 0x02, 0x10, 0xbe, 0xb1, 0xf2, 0x94, 0xbd,
  0x1a, 0xe2, 0x1a, 0x3d, 0xa7, 0x92, 0x3d, 0xbd, 0x33, 0x2d, 0x12, 0xbc,
  0x24, 0x20, 0x60, 0xbe, 0xb4, 0x0d, 0x3a, 0xbe, 0x79, 0x0f, 0x88, 0xbe,
  0xa0, 0x6f, 0x29, 0x3d, 0x27, 0x82, 0x0d, 0xbe, 0xe2, 0x2f, 0x28, 0x3d,
  0x7f, 0x45, 0x95, 0xbc, 0xed, 0x86, 0x73, 0xbe, 0x38, 0xa7, 0xd4, 0x3d,
  0x2f, 0x67, 0x31, 0xbc, 0x9d, 0x69, 0x2f, 0xbe, 0x72, 0x8e, 0x3e, 0xbc,
  0x39, 0xe8, 0x73, 0xbe, 0x79, 0xd6, 0x4c, 0xbe, 0x6a, 0x9c, 0x24, 0xbe,
  0x14, 0x23, 0xa1, 0x3b, 0x3c, 0x61, 0x89, 0xbd, 0x6e, 0x20, 0x1b, 0xbe,
  0x99, 0x70, 0x74, 0xbe, 0x47, 0x76, 0x12, 0xbe, 0x16, 0x93, 0x80, 0x3c,
  0x47, 0x31, 0xd2, 0x3d, 0xa7, 0x4d, 0x62, 0xbe, 0x23, 0x23, 0xa8, 0xbc,
  0x3c, 0xd2, 0xd2, 0xbc, 0x9d, 0x59, 0x5b, 0xbe, 0x17, 0x25, 0x90, 0xbd,
  0xc3, 0x01, 0x52, 0xbe, 0x0a, 0x24, 0xad, 0xbe, 0x4d, 0x4d, 0x3b, 0x3e,
  0x72, 0x6d, 0x42, 0xbd, 0x54, 0x90, 0x02, 0xbe, 0x03, 0xe9, 0x53, 0xbe,
  0x2d, 0x1c, 0x0c, 0x3e, 0x6a, 0xa8, 0xb6, 0x3a, 0x1f, 0xa6, 0x30, 0x3e,
  0x3f, 0x3a, 0x45, 0x3d, 0xa6, 0x60, 0x80, 0xbd, 0x11, 0xc4, 0x3b, 0x3e,
  0x75, 0x68, 0x84, 0xbc, 0xe3, 0x15, 0xbc, 0x3c, 0xb0, 0xae, 0x54, 0x3e,
  0xa2, 0xf7, 0x0f, 0x3e, 0xf4, 0xe9, 0x80, 0xbe, 0x6a, 0x42, 0x90, 0xbe,
  0x02, 0x59, 0xc0, 0xbc, 0xb7, 0x49, 0x07, 0xbe, 0xba, 0xb8, 0x87, 0x3d,
  0xf6, 0x9f, 0x35, 0x3c, 0xf2, 0xb6, 0x1a, 0xbe, 0xb6, 0x6b, 0x55, 0xbe,
  0x90, 0x4b, 0xa8, 0xbd, 0xcd, 0xee, 0xa3, 0x3d, 0x16, 0x7d, 0x96, 0xbc,
  0xd7, 0x21, 0x24, 0x3d, 0x09, 0x01, 0xab, 0x3d, 0xd1, 0x1e, 0xdf, 0x3d,
  0xda, 0x55, 0x9a, 0x3d, 0xe0, 0x52, 0xc0, 0xbd, 0xb2, 0x34, 0x4a, 0x3c,
  0x6f, 0x21, 0x7e, 0xbe, 0x07, 0xd1, 0xf0, 0x3b, 0x40, 0x4e, 0x12, 0x3d,
  0xdf, 0x87, 0xea, 0x3d, 0xb9, 0x5b, 0xd6, 0xbd, 0xb2, 0xd2, 0x32, 0x3c,
  0xb0, 0xfd, 0x2b, 0xbe, 0x27, 0x1d, 0xbc, 0xbd, 0xaf, 0xd3, 0xc6, 0x3d,
  0xef, 0xc3, 0x89, 0x3d, 0x7a, 0xf8, 0x5b, 0x3d, 0x94, 0xec, 0xc8, 0x3d,
  0x9e, 0xe1, 0xbc, 0xbc, 0x22, 0xf4, 0xc5, 0x3d, 0x0f, 0xf1, 0x73, 0x3d,
  0x4b, 0x5f, 0x81, 0xbe, 0xd8, 0xfc, 0x58, 0xbe, 0x14, 0x63, 0xc9, 0xbd,
  0x37, 0xf6, 0x06, 0xbe, 0x2c, 0x96, 0x93, 0x3b, 0xb1, 0xce, 0xf8, 0x3c,
  0x70, 0x88, 0x16, 0x3e, 0x38, 0x03, 0xef, 0xbd, 0x36, 0xb0, 0xb6, 0x3c,
  0x14, 0x8a, 0x17, 0x3e, 0xd4, 0x81, 0xfd, 0x3b, 0x4e, 0x6e, 0x33, 0xbe,
  0xc5, 0x97, 0x32, 0xbe, 0xa3, 0x50, 0xe2, 0xbd, 0xce, 0x8c, 0x03, 0xbe,
  0xf1, 0xe6, 0x94, 0x3d, 0x01, 0x1a, 0x74, 0xbd, 0xf9, 0x70, 0x49, 0xbe,
  0x51, 0xe6, 0x20, 0xbd, 0xe6, 0xbe, 0xea, 0xbd, 0xb0, 0xfa, 0x17, 0xbe,
  0x4f, 0x65, 0x74, 0x3c, 0x7d, 0xef, 0x8a, 0x3c, 0x7d, 0x6a, 0x07, 0x3e,
  0x18, 0xe8, 0x4c, 0xbd, 0xab, 0x90, 0x63, 0xbe, 0xe0, 0xcd, 0x3b, 0x3d,
  0x31, 0x08, 0x4a, 0xbe, 0xbd, 0xf2, 0x22, 0xbe, 0x44, 0x89, 0xfa, 0x3d,
  0x2e, 0xc9, 0x1c, 0x3e, 0xce, 0x13, 0x38, 0xbb, 0xd3, 0x89, 0x9a, 0xbd,
  0x58, 0x49, 0x90, 0xbe, 0xf8, 0x80, 0x39, 0xbe, 0x94, 0xe4, 0x4c, 0xbe,
  0x29, 0xbb, 0x99, 0xbd, 0xa2, 0xde, 0xc7, 0x3d, 0xd9, 0x90, 0x1e, 0xbe,
  0x6e, 0x3a, 0x1c, 0xbe, 0xdf, 0x63, 0xc3, 0x3d, 0xdb, 0xde, 0xbc, 0x3d,
  0x50, 0x9d, 0x1f, 0xbe, 0x99, 0x8b, 0xb4, 0x3d, 0x4a, 0xfe, 0xff, 0xff,
  0x10, 0x00, 0x00, 0x00, 0x05, 0x00, 0x00, 0x00, 0x14, 0x00, 0x00, 0x00,
  0x2c, 0x00, 0x00, 0x00, 0x02, 0x00, 0x00, 0x00, 0x10, 0x00, 0x00, 0x00,
  0x70, 0x00, 0x00, 0x00, 0x17, 0x00, 0x00, 0x00, 0x73, 0x65, 0x71, 0x75,
  0x65, 0x6e, 0x74, 0x69, 0x61, 0x6c, 0x2f, 0x64, 0x65, 0x6e, 0x73, 0x65,
  0x2f, 0x4d, 0x61, 0x74, 0x4d, 0x75, 0x6c, 0x00, 0x38, 0xfe, 0xff, 0xff,
  0x2e, 0xff, 0xff, 0xff, 0x04, 0x00, 0x00, 0x00, 0x08, 0x00, 0x00, 0x00,
  0xff, 0xff, 0xff, 0xff, 0x70, 0x00, 0x00, 0x00, 0x00, 0x00, 0x0e, 0x00,
  0x18, 0x00, 0x08, 0x00, 0x07, 0x00, 0x0c, 0x00, 0x10, 0x00, 0x14, 0x00,
  0x0e, 0x00, 0x00, 0x00, 0x00, 0x00, 0x00, 0x02, 0x10, 0x00, 0x00, 0x00,
  0x04, 0x00, 0x00, 0x00, 0x10, 0x00, 0x00, 0x00, 0x2c, 0x00, 0x00, 0x00,
  0x01, 0x00, 0x00, 0x00, 0x02, 0x00, 0x00, 0x00, 0x18, 0x00, 0x00, 0x00,
  0x73, 0x65, 0x71, 0x75, 0x65, 0x6e, 0x74, 0x69, 0x61, 0x6c, 0x2f, 0x66,
  0x6c, 0x61, 0x74, 0x74, 0x65, 0x6e, 0x2f, 0x43, 0x6f, 0x6e, 0x73, 0x74,
  0x00, 0x00, 0x00, 0x00, 0xa0, 0xfe, 0xff, 0xff, 0x96, 0xff, 0xff, 0xff,
  0x04, 0x00, 0x00, 0x00, 0x0c, 0x00, 0x00, 0x00, 0x6e, 0xeb, 0x2a, 0x3f,
  0x7a, 0x17, 0xb6, 0xc0, 0xf4, 0xd1, 0x19, 0x3f, 0x0a, 0xff, 0xff, 0xff,
  0x10, 0x00, 0x00, 0x00, 0x03, 0x00, 0x00, 0x00, 0x10, 0x00, 0x00, 0x00,
  0x3c, 0x00, 0x00, 0x00, 0x01, 0x00, 0x00, 0x00, 0x03, 0x00, 0x00, 0x00,
  0x29, 0x00, 0x00, 0x00, 0x73, 0x65, 0x71, 0x75, 0x65, 0x6e, 0x74, 0x69,
  0x61, 0x6c, 0x2f, 0x64, 0x65, 0x6e, 0x73, 0x65, 0x5f, 0x31, 0x2f, 0x42,
  0x69, 0x61, 0x73, 0x41, 0x64, 0x64, 0x2f, 0x52, 0x65, 0x61, 0x64, 0x56,
  0x61, 0x72, 0x69, 0x61, 0x62, 0x6c, 0x65, 0x4f, 0x70, 0x00, 0x00, 0x00,
  0x60, 0xff, 0xff, 0xff, 0x00, 0x00, 0x06, 0x00, 0x08, 0x00, 0x04, 0x00,
  0x06, 0x00, 0x00, 0x00, 0x04, 0x00, 0x00, 0x00, 0x40, 0x00, 0x00, 0x00,
  0x8f, 0x0b, 0x7a, 0xbe, 0x3b, 0x4b, 0x82, 0xbf, 0x4b, 0x61, 0xc9, 0xbc,
  0x30, 0x30, 0xa9, 0xbf, 0x51, 0xa4, 0x4c, 0xbe, 0x24, 0xe2, 0x69, 0xbe,
  0x70, 0x8c, 0xfd, 0xbd, 0x84, 0xfb, 0x91, 0xbe, 0x00, 0xdc, 0x21, 0xbf,
  0x6c, 0xc7, 0x2a, 0x40, 0xc0, 0xac, 0x13, 0x40, 0x43, 0x1b, 0x58, 0xbe,
  0x83, 0xc3, 0x7d, 0xbe, 0x34, 0xd6, 0x85, 0x3e, 0xe9, 0xf0, 0x5b, 0xbe,
  0x99, 0x4c, 0x1f, 0xbe, 0xae, 0xff, 0xff, 0xff, 0x10, 0x00, 0x00, 0x00,
  0x02, 0x00, 0x00, 0x00, 0x10, 0x00, 0x00, 0x00, 0x3c, 0x00, 0x00, 0x00,
  0x01, 0x00, 0x00, 0x00, 0x10, 0x00, 0x00, 0x00, 0x27, 0x00, 0x00, 0x00,
  0x73, 0x65, 0x71, 0x75, 0x65, 0x6e, 0x74, 0x69, 0x61, 0x6c, 0x2f, 0x64,
  0x65, 0x6e, 0x73, 0x65, 0x2f, 0x42, 0x69, 0x61, 0x73, 0x41, 0x64, 0x64,
  0x2f, 0x52, 0x65, 0x61, 0x64, 0x56, 0x61, 0x72, 0x69, 0x61, 0x62, 0x6c,
  0x65, 0x4f, 0x70, 0x00, 0x04, 0x00, 0x06, 0x00, 0x04, 0x00, 0x00, 0x00,
  0x00, 0x00, 0x0e, 0x00, 0x14, 0x00, 0x04, 0x00, 0x00, 0x00, 0x08, 0x00,
  0x0c, 0x00, 0x10, 0x00, 0x0e, 0x00, 0x00, 0x00, 0x10, 0x00, 0x00, 0x00,
  0x01, 0x00, 0x00, 0x00, 0x1c, 0x00, 0x00, 0x00, 0x2c, 0x00, 0x00, 0x00,
  0x04, 0x00, 0x00, 0x00, 0x01, 0x00, 0x00, 0x00, 0x40, 0x00, 0x00, 0x00,
  0x03, 0x00, 0x00, 0x00, 0x01, 0x00, 0x00, 0x00, 0x0c, 0x00, 0x00, 0x00,
  0x63, 0x6f, 0x6e, 0x76, 0x32, 0x64, 0x5f, 0x69, 0x6e, 0x70, 0x75, 0x74,
  0x00, 0x00, 0x00, 0x00, 0xfc, 0xff, 0xff, 0xff, 0x04, 0x00, 0x04, 0x00,
  0x04, 0x00, 0x00, 0x00
};


unsigned int model_tflite_len = 12316;// Fill the int in `src/model.cc` here
